
7e	67	99	a3	db	7b	11	aa	ed	99	3f	fe	d6	cd	ba	ea	90	06	b8	54	59	46	57	03	75	ea	e5	5d	ae	d5	5b	42	38	51	0a	97	35	49	d9	2b	9e	9f	1f	07	a4	f5	b2	de	ac	df	a4	59	79	11	47	72	26	f7	f4	8b	ae	cf	f2	d9	7f	73	24	67	ee	6d	ce	d6	24	58	07	1a	6b	a1	f8	80	07	00	8c	6c	1f	a5	7d	6b	d3	02	b1	8f	8a	7d	06	68	5b	03	a8	56	85	f6	b5	c6	0f	68	c3	bc	ae	70	db	e9	fb	7d	e5	2f	3b	90	e3	ba	93	d0	c5	2b	1f	51	f6	25	44	e9	8b	1d	90	bb	78	2d	ac	dc	9b	ee	20	c5	ff	69	52	f0	e9	07	41	50	0d	4e	40	22	39	2c	f5	b0	10	89	df	ad	05	fb	0f	a6	a1	c1	ab	b2	98	7a	b0	0d	04	34	dc	39	62	96	f1	c7	44	a2	66	b1	5d	fc	33	22	a6	ad	57	c2	a8	6a	0a	e0	82	c5	54	5b	47	ff	0e	3e	82	97	66	91	6a	a6	4b	dc	75	14	82	f6	11	10	5e	ae	13	45	c8	72	aa	7a	1b	4c	53	10	2c	56	d8	87	c2	83	bb	d5	57	4a	fc	0f	f4	2e	a1	3b	81	23	9d	d8	5c	3b	ce	60	86	18	46	94	c6	aa	bd	6b	bd	24	be	d3	09	45	d8	3a	40	ed	d7	e1	85	94	0f	e0	23	20	6c	0a	f7	92	ea	7b	70	b5	a2	36	d3	83	88	d5	03	cf	db	22	e2	56	93	d8	ff	7b	e8	60	ec	95	81	28	f7	22	d9	c9	7a	df	8e	19	1d	81	b8	cc	dd	17	e5	60	d3	62	d6	69	8f	77	01	e0	16	e2	19	d5	34	0c	47	13	cb	54	bb	8d	48	64	28	48	92	04	ce	cd	c8	a5	a3	5e	63	0b	fc	ad	d0	70	a8	e1	12	03	6e	15	e4	ca	89	9c	21	78	95	9d	f6	e9	ea	8c	29	fa	90	b0	d9	92	c0	b2	f0	1f	6a	7c	d5	25	e9	77	8b	d1	4c	07	59	26	40	1d	81	1b	b3	0f	33	f8	fd	21	e8	91	bf	2d	a3	8a	f2	a1	dd	99	6e	1d	df	7c	21	13	e3	db	3c	a4	44	bf	83	65	9a	fe	65	e9	68	41	69	ef	94	53	0e	f4	11	90	f6	86	e2	b3	c6	5f	b4	33	b3	ab	aa	70	2d	fd	3e	9c	1c	e7	b7	ce	37	0e	11	8e	9f	6d	be	9f	66	b9	19	73	07	11	9d	7f	78	dd	05	b5	b1	10	8e	a3	b3	7a	9c	ec	7f	4a	b7	98	3a	c2	06	78	bd	3d	
7e	67	99	a3	db	7b	11	aa	ed	99	3f	fe	d6	cd	ba	ea	90	06	b8	54	59	46	57	03	75	ea	e5	5d	ae	d5	5b	42	38	51	0a	97	35	49	d9	2b	9e	9f	1f	07	a4	f5	b2	de	ac	df	a4	59	79	11	47	72	26	f7	f4	8b	ae	cf	f2	d9	7f	73	24	67	ee	6d	ce	d6	24	58	07	1a	6b	a1	f8	80	07	00	8c	6c	1f	a5	7d	6b	d3	02	b1	8f	8a	7d	06	68	5b	03	a8	56	85	f6	b5	c6	0f	68	c3	bc	ae	70	db	e9	fb	7d	e5	2f	3b	90	e3	ba	93	d0	c5	2b	1f	51	f6	25	44	e9	8b	1d	90	bb	78	2d	ac	dc	9b	ee	20	c5	ff	69	52	f0	e9	07	41	50	0d	4e	40	22	39	2c	f5	b0	10	89	df	ad	05	fb	0f	a6	a1	c1	ab	b2	98	7a	b0	0d	04	34	dc	39	62	96	f1	c7	44	a2	66	b1	5d	fc	33	22	a6	ad	57	c2	a8	6a	0a	e0	82	c5	54	5b	47	ff	0e	3e	82	97	66	91	6a	a6	4b	dc	75	14	82	f6	11	10	5e	ae	13	45	c8	72	aa	7a	1b	4c	53	10	2c	56	d8	87	c2	83	bb	d5	57	4a	fc	0f	f4	2e	a1	3b	81	23	9d	d8	5c	3b	ce	60	86	18	46	94	c6	aa	bd	6b	bd	24	be	d3	09	45	d8	3a	40	ed	d7	e1	85	94	0f	e0	23	20	6c	0a	f7	92	ea	7b	70	b5	a2	36	d3	83	88	d5	03	cf	db	22	e2	56	93	d8	ff	7b	e8	60	ec	95	81	28	f7	22	d9	c9	7a	df	8e	19	1d	81	b8	cc	dd	17	e5	60	d3	62	d6	69	8f	77	01	e0	16	e2	19	d5	34	0c	47	13	cb	54	bb	8d	48	64	28	48	92	04	ce	cd	c8	a5	a3	5e	63	0b	fc	ad	d0	70	a8	e1	12	03	6e	15	e4	ca	89	9c	21	78	95	9d	f6	e9	ea	8c	29	fa	90	b0	d9	92	c0	b2	f0	1f	6a	7c	d5	25	e9	77	8b	d1	4c	07	59	26	40	1d	81	1b	b3	0f	33	f8	fd	21	e8	91	bf	2d	a3	8a	f2	a1	dd	99	6e	1d	df	7c	21	13	e3	db	3c	a4	44	bf	83	65	9a	fe	65	e9	68	41	69	ef	94	53	0e	f4	11	90	f6	86	e2	b3	c6	5f	b4	33	b3	ab	aa	70	2d	fd	3e	9c	1c	e7	b7	ce	37	0e	11	8e	9f	6d	be	9f	66	b9	19	73	07	11	9d	7f	78	dd	05	b5	b1	10	8e	a3	b3	7a	9c	ec	7f	4a	b7	98	3a	c2	06	78	bd	3d	
7e	67	99	a3	db	7b	11	aa	ed	99	3f	fe	d6	cd	ba	ea	90	06	b8	54	59	46	57	03	75	ea	e5	5d	ae	d5	5b	42	38	51	0a	97	35	49	d9	2b	9e	9f	1f	07	a4	f5	b2	de	ac	df	a4	59	79	11	47	72	26	f7	f4	8b	ae	cf	f2	d9	7f	73	24	67	ee	6d	ce	d6	24	58	07	1a	6b	a1	f8	80	07	00	8c	6c	1f	a5	7d	6b	d3	02	b1	8f	8a	7d	06	68	5b	03	a8	56	85	f6	b5	c6	0f	68	c3	bc	ae	70	db	e9	fb	7d	e5	2f	3b	90	e3	ba	93	d0	c5	2b	1f	51	f6	25	44	e9	8b	1d	90	bb	78	2d	ac	dc	9b	ee	20	c5	ff	69	52	f0	e9	07	41	50	0d	4e	40	22	39	2c	f5	b0	10	89	df	ad	05	fb	0f	a6	a1	c1	ab	b2	98	7a	b0	0d	04	34	dc	39	62	96	f1	c7	44	a2	66	b1	5d	fc	33	22	a6	ad	57	c2	a8	6a	0a	e0	82	c5	54	5b	47	ff	0e	3e	82	97	66	91	6a	a6	4b	dc	75	14	82	f6	11	10	5e	ae	13	45	c8	72	aa	7a	1b	4c	53	10	2c	56	d8	87	c2	83	bb	d5	57	4a	fc	0f	f4	2e	a1	3b	81	23	9d	d8	5c	3b	ce	60	86	18	46	94	c6	aa	bd	6b	bd	24	be	d3	09	45	d8	3a	40	ed	d7	e1	85	94	0f	e0	23	20	6c	0a	f7	92	ea	7b	70	b5	a2	36	d3	83	88	d5	03	cf	db	22	e2	56	93	d8	ff	7b	e8	60	ec	95	81	28	f7	22	d9	c9	7a	df	8e	19	1d	81	b8	cc	dd	17	e5	60	d3	62	d6	69	8f	77	01	e0	16	e2	19	d5	34	0c	47	13	cb	54	bb	8d	48	64	28	48	92	04	ce	cd	c8	a5	a3	5e	63	0b	fc	ad	d0	70	a8	e1	12	03	6e	15	e4	ca	89	9c	21	78	95	9d	f6	e9	ea	8c	29	fa	90	b0	d9	92	c0	b2	f0	1f	6a	7c	d5	25	e9	77	8b	d1	4c	07	59	26	40	1d	81	1b	b3	0f	33	f8	fd	21	e8	91	bf	2d	a3	8a	f2	a1	dd	99	6e	1d	df	7c	21	13	e3	db	3c	a4	44	bf	83	65	9a	fe	65	e9	68	41	69	ef	94	53	0e	f4	11	90	f6	86	e2	b3	c6	5f	b4	33	b3	ab	aa	70	2d	fd	3e	9c	1c	e7	b7	ce	37	0e	11	8e	9f	6d	be	9f	66	b9	19	73	07	11	9d	7f	78	dd	05	b5	b1	10	8e	a3	b3	7a	9c	ec	7f	4a	b7	98	3a	c2	06	78	bd	3d	
7e	67	99	a3	db	7b	11	aa	ed	99	3f	fe	d6	cd	ba	ea	90	06	b8	54	59	46	57	03	75	ea	e5	5d	ae	d5	5b	42	38	51	0a	97	35	49	d9	2b	9e	9f	1f	07	a4	f5	b2	de	ac	df	a4	59	79	11	47	72	26	f7	f4	8b	ae	cf	f2	d9	7f	73	24	67	ee	6d	ce	d6	24	58	07	1a	6b	a1	f8	80	07	00	8c	6c	1f	a5	7d	6b	d3	02	b1	8f	8a	7d	06	68	5b	03	a8	56	85	f6	b5	c6	0f	68	c3	bc	ae	70	db	e9	fb	7d	e5	2f	3b	90	e3	ba	93	d0	c5	2b	1f	51	f6	25	44	e9	8b	1d	90	bb	78	2d	ac	dc	9b	ee	20	c5	ff	69	52	f0	e9	07	41	50	0d	4e	40	22	39	2c	f5	b0	10	89	df	ad	05	fb	0f	a6	a1	c1	ab	b2	98	7a	b0	0d	04	34	dc	39	62	96	f1	c7	44	a2	66	b1	5d	fc	33	22	a6	ad	57	c2	a8	6a	0a	e0	82	c5	54	5b	47	ff	0e	3e	82	97	66	91	6a	a6	4b	dc	75	14	82	f6	11	10	5e	ae	13	45	c8	72	aa	7a	1b	4c	53	10	2c	56	d8	87	c2	83	bb	d5	57	4a	fc	0f	f4	2e	a1	3b	81	23	9d	d8	5c	3b	ce	60	86	18	46	94	c6	aa	bd	6b	bd	24	be	d3	09	45	d8	3a	40	ed	d7	e1	85	94	0f	e0	23	20	6c	0a	f7	92	ea	7b	70	b5	a2	36	d3	83	88	d5	03	cf	db	22	e2	56	93	d8	ff	7b	e8	60	ec	95	81	28	f7	22	d9	c9	7a	df	8e	19	1d	81	b8	cc	dd	17	e5	60	d3	62	d6	69	8f	77	01	e0	16	e2	19	d5	34	0c	47	13	cb	54	bb	8d	48	64	28	48	92	04	ce	cd	c8	a5	a3	5e	63	0b	fc	ad	d0	70	a8	e1	12	03	6e	15	e4	ca	89	9c	21	78	95	9d	f6	e9	ea	8c	29	fa	90	b0	d9	92	c0	b2	f0	1f	6a	7c	d5	25	e9	77	8b	d1	4c	07	59	26	40	1d	81	1b	b3	0f	33	f8	fd	21	e8	91	bf	2d	a3	8a	f2	a1	dd	99	6e	1d	df	7c	21	13	e3	db	3c	a4	44	bf	83	65	9a	fe	65	e9	68	41	69	ef	94	53	0e	f4	11	90	f6	86	e2	b3	c6	5f	b4	33	b3	ab	aa	70	2d	fd	3e	9c	1c	e7	b7	ce	37	0e	11	8e	9f	6d	be	9f	66	b9	19	73	07	11	9d	7f	78	dd	05	b5	b1	10	8e	a3	b3	7a	9c	ec	7f	4a	b7	98	3a	c2	06	78	bd	3d	
7e	67	99	a3	db	7b	11	aa	ed	99	3f	fe	d6	cd	ba	ea	90	06	b8	54	59	46	57	03	75	ea	e5	5d	ae	d5	5b	42	38	51	0a	97	35	49	d9	2b	9e	9f	1f	07	a4	f5	b2	de	ac	df	a4	59	79	11	47	72	26	f7	f4	8b	ae	cf	f2	d9	7f	73	24	67	ee	6d	ce	d6	24	58	07	1a	6b	a1	f8	80	07	00	8c	6c	1f	a5	7d	6b	d3	02	b1	8f	8a	7d	06	68	5b	03	a8	56	85	f6	b5	c6	0f	68	c3	bc	ae	70	db	e9	fb	7d	e5	2f	3b	90	e3	ba	93	d0	c5	2b	1f	51	f6	25	44	e9	8b	1d	90	bb	78	2d	ac	dc	9b	ee	20	c5	ff	69	52	f0	e9	07	41	50	0d	4e	40	22	39	2c	f5	b0	10	89	df	ad	05	fb	0f	a6	a1	c1	ab	b2	98	7a	b0	0d	04	34	dc	39	62	96	f1	c7	44	a2	66	b1	5d	fc	33	22	a6	ad	57	c2	a8	6a	0a	e0	82	c5	54	5b	47	ff	0e	3e	82	97	66	91	6a	a6	4b	dc	75	14	82	f6	11	10	5e	ae	13	45	c8	72	aa	7a	1b	4c	53	10	2c	56	d8	87	c2	83	bb	d5	57	4a	fc	0f	f4	2e	a1	3b	81	23	9d	d8	5c	3b	ce	60	86	18	46	94	c6	aa	bd	6b	bd	24	be	d3	09	45	d8	3a	40	ed	d7	e1	85	94	0f	e0	23	20	6c	0a	f7	92	ea	7b	70	b5	a2	36	d3	83	88	d5	03	cf	db	22	e2	56	93	d8	ff	7b	e8	60	ec	95	81	28	f7	22	d9	c9	7a	df	8e	19	1d	81	b8	cc	dd	17	e5	60	d3	62	d6	69	8f	77	01	e0	16	e2	19	d5	34	0c	47	13	cb	54	bb	8d	48	64	28	48	92	04	ce	cd	c8	a5	a3	5e	63	0b	fc	ad	d0	70	a8	e1	12	03	6e	15	e4	ca	89	9c	21	78	95	9d	f6	e9	ea	8c	29	fa	90	b0	d9	92	c0	b2	f0	1f	6a	7c	d5	25	e9	77	8b	d1	4c	07	59	26	40	1d	81	1b	b3	0f	33	f8	fd	21	e8	91	bf	2d	a3	8a	f2	a1	dd	99	6e	1d	df	7c	21	13	e3	db	3c	a4	44	bf	83	65	9a	fe	65	e9	68	41	69	ef	94	53	0e	f4	11	90	f6	86	e2	b3	c6	5f	b4	33	b3	ab	aa	70	2d	fd	3e	9c	1c	e7	b7	ce	37	0e	11	8e	9f	6d	be	9f	66	b9	19	73	07	11	9d	7f	78	dd	05	b5	b1	10	8e	a3	b3	7a	9c	ec	7f	4a	b7	98	3a	c2	06	78	bd	3d	
7e	67	99	a3	db	7b	11	aa	ed	99	3f	fe	d6	cd	ba	ea	90	06	b8	54	59	46	57	03	75	ea	e5	5d	ae	d5	5b	42	38	51	0a	97	35	49	d9	2b	9e	9f	1f	07	a4	f5	b2	de	ac	df	a4	59	79	11	47	72	26	f7	f4	8b	ae	cf	f2	d9	7f	73	24	67	ee	6d	ce	d6	24	58	07	1a	6b	a1	f8	80	07	00	8c	6c	1f	a5	7d	6b	d3	02	b1	8f	8a	7d	06	68	5b	03	a8	56	85	f6	b5	c6	0f	68	c3	bc	ae	70	db	e9	fb	7d	e5	2f	3b	90	e3	ba	93	d0	c5	2b	1f	51	f6	25	44	e9	8b	1d	90	bb	78	2d	ac	dc	9b	ee	20	c5	ff	69	52	f0	e9	07	41	50	0d	4e	40	22	39	2c	f5	b0	10	89	df	ad	05	fb	0f	a6	a1	c1	ab	b2	98	7a	b0	0d	04	34	dc	39	62	96	f1	c7	44	a2	66	b1	5d	fc	33	22	a6	ad	57	c2	a8	6a	0a	e0	82	c5	54	5b	47	ff	0e	3e	82	97	66	91	6a	a6	4b	dc	75	14	82	f6	11	10	5e	ae	13	45	c8	72	aa	7a	1b	4c	53	10	2c	56	d8	87	c2	83	bb	d5	57	4a	fc	0f	f4	2e	a1	3b	81	23	9d	d8	5c	3b	ce	60	86	18	46	94	c6	aa	bd	6b	bd	24	be	d3	09	45	d8	3a	40	ed	d7	e1	85	94	0f	e0	23	20	6c	0a	f7	92	ea	7b	70	b5	a2	36	d3	83	88	d5	03	cf	db	22	e2	56	93	d8	ff	7b	e8	60	ec	95	81	28	f7	22	d9	c9	7a	df	8e	19	1d	81	b8	cc	dd	17	e5	60	d3	62	d6	69	8f	77	01	e0	16	e2	19	d5	34	0c	47	13	cb	54	bb	8d	48	64	28	48	92	04	ce	cd	c8	a5	a3	5e	63	0b	fc	ad	d0	70	a8	e1	12	03	6e	15	e4	ca	89	9c	21	78	95	9d	f6	e9	ea	8c	29	fa	90	b0	d9	92	c0	b2	f0	1f	6a	7c	d5	25	e9	77	8b	d1	4c	07	59	26	40	1d	81	1b	b3	0f	33	f8	fd	21	e8	91	bf	2d	a3	8a	f2	a1	dd	99	6e	1d	df	7c	21	13	e3	db	3c	a4	44	bf	83	65	9a	fe	65	e9	68	41	69	ef	94	53	0e	f4	11	90	f6	86	e2	b3	c6	5f	b4	33	b3	ab	aa	70	2d	fd	3e	9c	1c	e7	b7	ce	37	0e	11	8e	9f	6d	be	9f	66	b9	19	73	07	11	9d	7f	78	dd	05	b5	b1	10	8e	a3	b3	7a	9c	ec	7f	4a	b7	98	3a	c2	06	78	bd	3d	
7e	67	99	a3	db	7b	11	aa	ed	99	3f	fe	d6	cd	ba	ea	90	06	b8	54	59	46	57	03	75	ea	e5	5d	ae	d5	5b	42	38	51	0a	97	35	49	d9	2b	9e	9f	1f	07	a4	f5	b2	de	ac	df	a4	59	79	11	47	72	26	f7	f4	8b	ae	cf	f2	d9	7f	73	24	67	ee	6d	ce	d6	24	58	07	1a	6b	a1	f8	80	07	00	8c	6c	1f	a5	7d	6b	d3	02	b1	8f	8a	7d	06	68	5b	03	a8	56	85	f6	b5	c6	0f	68	c3	bc	ae	70	db	e9	fb	7d	e5	2f	3b	90	e3	ba	93	d0	c5	2b	1f	51	f6	25	44	e9	8b	1d	90	bb	78	2d	ac	dc	9b	ee	20	c5	ff	69	52	f0	e9	07	41	50	0d	4e	40	22	39	2c	f5	b0	10	89	df	ad	05	fb	0f	a6	a1	c1	ab	b2	98	7a	b0	0d	04	34	dc	39	62	96	f1	c7	44	a2	66	b1	5d	fc	33	22	a6	ad	57	c2	a8	6a	0a	e0	82	c5	54	5b	47	ff	0e	3e	82	97	66	91	6a	a6	4b	dc	75	14	82	f6	11	10	5e	ae	13	45	c8	72	aa	7a	1b	4c	53	10	2c	56	d8	87	c2	83	bb	d5	57	4a	fc	0f	f4	2e	a1	3b	81	23	9d	d8	5c	3b	ce	60	86	18	46	94	c6	aa	bd	6b	bd	24	be	d3	09	45	d8	3a	40	ed	d7	e1	85	94	0f	e0	23	20	6c	0a	f7	92	ea	7b	70	b5	a2	36	d3	83	88	d5	03	cf	db	22	e2	56	93	d8	ff	7b	e8	60	ec	95	81	28	f7	22	d9	c9	7a	df	8e	19	1d	81	b8	cc	dd	17	e5	60	d3	62	d6	69	8f	77	01	e0	16	e2	19	d5	34	0c	47	13	cb	54	bb	8d	48	64	28	48	92	04	ce	cd	c8	a5	a3	5e	63	0b	fc	ad	d0	70	a8	e1	12	03	6e	15	e4	ca	89	9c	21	78	95	9d	f6	e9	ea	8c	29	fa	90	b0	d9	92	c0	b2	f0	1f	6a	7c	d5	25	e9	77	8b	d1	4c	07	59	26	40	1d	81	1b	b3	0f	33	f8	fd	21	e8	91	bf	2d	a3	8a	f2	a1	dd	99	6e	1d	df	7c	21	13	e3	db	3c	a4	44	bf	83	65	9a	fe	65	e9	68	41	69	ef	94	53	0e	f4	11	90	f6	86	e2	b3	c6	5f	b4	33	b3	ab	aa	70	2d	fd	3e	9c	1c	e7	b7	ce	37	0e	11	8e	9f	6d	be	9f	66	b9	19	73	07	11	9d	7f	78	dd	05	b5	b1	10	8e	a3	b3	7a	9c	ec	7f	4a	b7	98	3a	c2	06	78	bd	3d	
7e	67	99	a3	db	7b	11	aa	ed	99	3f	fe	d6	cd	ba	ea	90	06	b8	54	59	46	57	03	75	ea	e5	5d	ae	d5	5b	42	38	51	0a	97	35	49	d9	2b	9e	9f	1f	07	a4	f5	b2	de	ac	df	a4	59	79	11	47	72	26	f7	f4	8b	ae	cf	f2	d9	7f	73	24	67	ee	6d	ce	d6	24	58	07	1a	6b	a1	f8	80	07	00	8c	6c	1f	a5	7d	6b	d3	02	b1	8f	8a	7d	06	68	5b	03	a8	56	85	f6	b5	c6	0f	68	c3	bc	ae	70	db	e9	fb	7d	e5	2f	3b	90	e3	ba	93	d0	c5	2b	1f	51	f6	25	44	e9	8b	1d	90	bb	78	2d	ac	dc	9b	ee	20	c5	ff	69	52	f0	e9	07	41	50	0d	4e	40	22	39	2c	f5	b0	10	89	df	ad	05	fb	0f	a6	a1	c1	ab	b2	98	7a	b0	0d	04	34	dc	39	62	96	f1	c7	44	a2	66	b1	5d	fc	33	22	a6	ad	57	c2	a8	6a	0a	e0	82	c5	54	5b	47	ff	0e	3e	82	97	66	91	6a	a6	4b	dc	75	14	82	f6	11	10	5e	ae	13	45	c8	72	aa	7a	1b	4c	53	10	2c	56	d8	87	c2	83	bb	d5	57	4a	fc	0f	f4	2e	a1	3b	81	23	9d	d8	5c	3b	ce	60	86	18	46	94	c6	aa	bd	6b	bd	24	be	d3	09	45	d8	3a	40	ed	d7	e1	85	94	0f	e0	23	20	6c	0a	f7	92	ea	7b	70	b5	a2	36	d3	83	88	d5	03	cf	db	22	e2	56	93	d8	ff	7b	e8	60	ec	95	81	28	f7	22	d9	c9	7a	df	8e	19	1d	81	b8	cc	dd	17	e5	60	d3	62	d6	69	8f	77	01	e0	16	e2	19	d5	34	0c	47	13	cb	54	bb	8d	48	64	28	48	92	04	ce	cd	c8	a5	a3	5e	63	0b	fc	ad	d0	70	a8	e1	12	03	6e	15	e4	ca	89	9c	21	78	95	9d	f6	e9	ea	8c	29	fa	90	b0	d9	92	c0	b2	f0	1f	6a	7c	d5	25	e9	77	8b	d1	4c	07	59	26	40	1d	81	1b	b3	0f	33	f8	fd	21	e8	91	bf	2d	a3	8a	f2	a1	dd	99	6e	1d	df	7c	21	13	e3	db	3c	a4	44	bf	83	65	9a	fe	65	e9	68	41	69	ef	94	53	0e	f4	11	90	f6	86	e2	b3	c6	5f	b4	33	b3	ab	aa	70	2d	fd	3e	9c	1c	e7	b7	ce	37	0e	11	8e	9f	6d	be	9f	66	b9	19	73	07	11	9d	7f	78	dd	05	b5	b1	10	8e	a3	b3	7a	9c	ec	7f	4a	b7	98	3a	c2	06	78	bd	3d	
7e	67	99	a3	db	7b	11	aa	ed	99	3f	fe	d6	cd	ba	ea	90	06	b8	54	59	46	57	03	75	ea	e5	5d	ae	d5	5b	42	38	51	0a	97	35	49	d9	2b	9e	9f	1f	07	a4	f5	b2	de	ac	df	a4	59	79	11	47	72	26	f7	f4	8b	ae	cf	f2	d9	7f	73	24	67	ee	6d	ce	d6	24	58	07	1a	6b	a1	f8	80	07	00	8c	6c	1f	a5	7d	6b	d3	02	b1	8f	8a	7d	06	68	5b	03	a8	56	85	f6	b5	c6	0f	68	c3	bc	ae	70	db	e9	fb	7d	e5	2f	3b	90	e3	ba	93	d0	c5	2b	1f	51	f6	25	44	e9	8b	1d	90	bb	78	2d	ac	dc	9b	ee	20	c5	ff	69	52	f0	e9	07	41	50	0d	4e	40	22	39	2c	f5	b0	10	89	df	ad	05	fb	0f	a6	a1	c1	ab	b2	98	7a	b0	0d	04	34	dc	39	62	96	f1	c7	44	a2	66	b1	5d	fc	33	22	a6	ad	57	c2	a8	6a	0a	e0	82	c5	54	5b	47	ff	0e	3e	82	97	66	91	6a	a6	4b	dc	75	14	82	f6	11	10	5e	ae	13	45	c8	72	aa	7a	1b	4c	53	10	2c	56	d8	87	c2	83	bb	d5	57	4a	fc	0f	f4	2e	a1	3b	81	23	9d	d8	5c	3b	ce	60	86	18	46	94	c6	aa	bd	6b	bd	24	be	d3	09	45	d8	3a	40	ed	d7	e1	85	94	0f	e0	23	20	6c	0a	f7	92	ea	7b	70	b5	a2	36	d3	83	88	d5	03	cf	db	22	e2	56	93	d8	ff	7b	e8	60	ec	95	81	28	f7	22	d9	c9	7a	df	8e	19	1d	81	b8	cc	dd	17	e5	60	d3	62	d6	69	8f	77	01	e0	16	e2	19	d5	34	0c	47	13	cb	54	bb	8d	48	64	28	48	92	04	ce	cd	c8	a5	a3	5e	63	0b	fc	ad	d0	70	a8	e1	12	03	6e	15	e4	ca	89	9c	21	78	95	9d	f6	e9	ea	8c	29	fa	90	b0	d9	92	c0	b2	f0	1f	6a	7c	d5	25	e9	77	8b	d1	4c	07	59	26	40	1d	81	1b	b3	0f	33	f8	fd	21	e8	91	bf	2d	a3	8a	f2	a1	dd	99	6e	1d	df	7c	21	13	e3	db	3c	a4	44	bf	83	65	9a	fe	65	e9	68	41	69	ef	94	53	0e	f4	11	90	f6	86	e2	b3	c6	5f	b4	33	b3	ab	aa	70	2d	fd	3e	9c	1c	e7	b7	ce	37	0e	11	8e	9f	6d	be	9f	66	b9	19	73	07	11	9d	7f	78	dd	05	b5	b1	10	8e	a3	b3	7a	9c	ec	7f	4a	b7	98	3a	c2	06	78	bd	3d	
7e	67	99	a3	db	7b	11	aa	ed	99	3f	fe	d6	cd	ba	ea	90	06	b8	54	59	46	57	03	75	ea	e5	5d	ae	d5	5b	42	38	51	0a	97	35	49	d9	2b	9e	9f	1f	07	a4	f5	b2	de	ac	df	a4	59	79	11	47	72	26	f7	f4	8b	ae	cf	f2	d9	7f	73	24	67	ee	6d	ce	d6	24	58	07	1a	6b	a1	f8	80	07	00	8c	6c	1f	a5	7d	6b	d3	02	b1	8f	8a	7d	06	68	5b	03	a8	56	85	f6	b5	c6	0f	68	c3	bc	ae	70	db	e9	fb	7d	e5	2f	3b	90	e3	ba	93	d0	c5	2b	1f	51	f6	25	44	e9	8b	1d	90	bb	78	2d	ac	dc	9b	ee	20	c5	ff	69	52	f0	e9	07	41	50	0d	4e	40	22	39	2c	f5	b0	10	89	df	ad	05	fb	0f	a6	a1	c1	ab	b2	98	7a	b0	0d	04	34	dc	39	62	96	f1	c7	44	a2	66	b1	5d	fc	33	22	a6	ad	57	c2	a8	6a	0a	e0	82	c5	54	5b	47	ff	0e	3e	82	97	66	91	6a	a6	4b	dc	75	14	82	f6	11	10	5e	ae	13	45	c8	72	aa	7a	1b	4c	53	10	2c	56	d8	87	c2	83	bb	d5	57	4a	fc	0f	f4	2e	a1	3b	81	23	9d	d8	5c	3b	ce	60	86	18	46	94	c6	aa	bd	6b	bd	24	be	d3	09	45	d8	3a	40	ed	d7	e1	85	94	0f	e0	23	20	6c	0a	f7	92	ea	7b	70	b5	a2	36	d3	83	88	d5	03	cf	db	22	e2	56	93	d8	ff	7b	e8	60	ec	95	81	28	f7	22	d9	c9	7a	df	8e	19	1d	81	b8	cc	dd	17	e5	60	d3	62	d6	69	8f	77	01	e0	16	e2	19	d5	34	0c	47	13	cb	54	bb	8d	48	64	28	48	92	04	ce	cd	c8	a5	a3	5e	63	0b	fc	ad	d0	70	a8	e1	12	03	6e	15	e4	ca	89	9c	21	78	95	9d	f6	e9	ea	8c	29	fa	90	b0	d9	92	c0	b2	f0	1f	6a	7c	d5	25	e9	77	8b	d1	4c	07	59	26	40	1d	81	1b	b3	0f	33	f8	fd	21	e8	91	bf	2d	a3	8a	f2	a1	dd	99	6e	1d	df	7c	21	13	e3	db	3c	a4	44	bf	83	65	9a	fe	65	e9	68	41	69	ef	94	53	0e	f4	11	90	f6	86	e2	b3	c6	5f	b4	33	b3	ab	aa	70	2d	fd	3e	9c	1c	e7	b7	ce	37	0e	11	8e	9f	6d	be	9f	66	b9	19	73	07	11	9d	7f	78	dd	05	b5	b1	10	8e	a3	b3	7a	9c	ec	7f	4a	b7	98	3a	c2	06	78	bd	3d	
7e	67	99	a3	db	7b	11	aa	ed	99	3f	fe	d6	cd	ba	ea	90	06	b8	54	59	46	57	03	75	ea	e5	5d	ae	d5	5b	42	38	51	0a	97	35	49	d9	2b	9e	9f	1f	07	a4	f5	b2	de	ac	df	a4	59	79	11	47	72	26	f7	f4	8b	ae	cf	f2	d9	7f	73	24	67	ee	6d	ce	d6	24	58	07	1a	6b	a1	f8	80	07	00	8c	6c	1f	a5	7d	6b	d3	02	b1	8f	8a	7d	06	68	5b	03	a8	56	85	f6	b5	c6	0f	68	c3	bc	ae	70	db	e9	fb	7d	e5	2f	3b	90	e3	ba	93	d0	c5	2b	1f	51	f6	25	44	e9	8b	1d	90	bb	78	2d	ac	dc	9b	ee	20	c5	ff	69	52	f0	e9	07	41	50	0d	4e	40	22	39	2c	f5	b0	10	89	df	ad	05	fb	0f	a6	a1	c1	ab	b2	98	7a	b0	0d	04	34	dc	39	62	96	f1	c7	44	a2	66	b1	5d	fc	33	22	a6	ad	57	c2	a8	6a	0a	e0	82	c5	54	5b	47	ff	0e	3e	82	97	66	91	6a	a6	4b	dc	75	14	82	f6	11	10	5e	ae	13	45	c8	72	aa	7a	1b	4c	53	10	2c	56	d8	87	c2	83	bb	d5	57	4a	fc	0f	f4	2e	a1	3b	81	23	9d	d8	5c	3b	ce	60	86	18	46	94	c6	aa	bd	6b	bd	24	be	d3	09	45	d8	3a	40	ed	d7	e1	85	94	0f	e0	23	20	6c	0a	f7	92	ea	7b	70	b5	a2	36	d3	83	88	d5	03	cf	db	22	e2	56	93	d8	ff	7b	e8	60	ec	95	81	28	f7	22	d9	c9	7a	df	8e	19	1d	81	b8	cc	dd	17	e5	60	d3	62	d6	69	8f	77	01	e0	16	e2	19	d5	34	0c	47	13	cb	54	bb	8d	48	64	28	48	92	04	ce	cd	c8	a5	a3	5e	63	0b	fc	ad	d0	70	a8	e1	12	03	6e	15	e4	ca	89	9c	21	78	95	9d	f6	e9	ea	8c	29	fa	90	b0	d9	92	c0	b2	f0	1f	6a	7c	d5	25	e9	77	8b	d1	4c	07	59	26	40	1d	81	1b	b3	0f	33	f8	fd	21	e8	91	bf	2d	a3	8a	f2	a1	dd	99	6e	1d	df	7c	21	13	e3	db	3c	a4	44	bf	83	65	9a	fe	65	e9	68	41	69	ef	94	53	0e	f4	11	90	f6	86	e2	b3	c6	5f	b4	33	b3	ab	aa	70	2d	fd	3e	9c	1c	e7	b7	ce	37	0e	11	8e	9f	6d	be	9f	66	b9	19	73	07	11	9d	7f	78	dd	05	b5	b1	10	8e	a3	b3	7a	9c	ec	7f	4a	b7	98	3a	c2	06	78	bd	3d	
7e	67	99	a3	db	7b	11	aa	ed	99	3f	fe	d6	cd	ba	ea	90	06	b8	54	59	46	57	03	75	ea	e5	5d	ae	d5	5b	42	38	51	0a	97	35	49	d9	2b	9e	9f	1f	07	a4	f5	b2	de	ac	df	a4	59	79	11	47	72	26	f7	f4	8b	ae	cf	f2	d9	7f	73	24	67	ee	6d	ce	d6	24	58	07	1a	6b	a1	f8	80	07	00	8c	6c	1f	a5	7d	6b	d3	02	b1	8f	8a	7d	06	68	5b	03	a8	56	85	f6	b5	c6	0f	68	c3	bc	ae	70	db	e9	fb	7d	e5	2f	3b	90	e3	ba	93	d0	c5	2b	1f	51	f6	25	44	e9	8b	1d	90	bb	78	2d	ac	dc	9b	ee	20	c5	ff	69	52	f0	e9	07	41	50	0d	4e	40	22	39	2c	f5	b0	10	89	df	ad	05	fb	0f	a6	a1	c1	ab	b2	98	7a	b0	0d	04	34	dc	39	62	96	f1	c7	44	a2	66	b1	5d	fc	33	22	a6	ad	57	c2	a8	6a	0a	e0	82	c5	54	5b	47	ff	0e	3e	82	97	66	91	6a	a6	4b	dc	75	14	82	f6	11	10	5e	ae	13	45	c8	72	aa	7a	1b	4c	53	10	2c	56	d8	87	c2	83	bb	d5	57	4a	fc	0f	f4	2e	a1	3b	81	23	9d	d8	5c	3b	ce	60	86	18	46	94	c6	aa	bd	6b	bd	24	be	d3	09	45	d8	3a	40	ed	d7	e1	85	94	0f	e0	23	20	6c	0a	f7	92	ea	7b	70	b5	a2	36	d3	83	88	d5	03	cf	db	22	e2	56	93	d8	ff	7b	e8	60	ec	95	81	28	f7	22	d9	c9	7a	df	8e	19	1d	81	b8	cc	dd	17	e5	60	d3	62	d6	69	8f	77	01	e0	16	e2	19	d5	34	0c	47	13	cb	54	bb	8d	48	64	28	48	92	04	ce	cd	c8	a5	a3	5e	63	0b	fc	ad	d0	70	a8	e1	12	03	6e	15	e4	ca	89	9c	21	78	95	9d	f6	e9	ea	8c	29	fa	90	b0	d9	92	c0	b2	f0	1f	6a	7c	d5	25	e9	77	8b	d1	4c	07	59	26	40	1d	81	1b	b3	0f	33	f8	fd	21	e8	91	bf	2d	a3	8a	f2	a1	dd	99	6e	1d	df	7c	21	13	e3	db	3c	a4	44	bf	83	65	9a	fe	65	e9	68	41	69	ef	94	53	0e	f4	11	90	f6	86	e2	b3	c6	5f	b4	33	b3	ab	aa	70	2d	fd	3e	9c	1c	e7	b7	ce	37	0e	11	8e	9f	6d	be	9f	66	b9	19	73	07	11	9d	7f	78	dd	05	b5	b1	10	8e	a3	b3	7a	9c	ec	7f	4a	b7	98	3a	c2	06	78	bd	3d	
7e	67	99	a3	db	7b	11	aa	ed	99	3f	fe	d6	cd	ba	ea	90	06	b8	54	59	46	57	03	75	ea	e5	5d	ae	d5	5b	42	38	51	0a	97	35	49	d9	2b	9e	9f	1f	07	a4	f5	b2	de	ac	df	a4	59	79	11	47	72	26	f7	f4	8b	ae	cf	f2	d9	7f	73	24	67	ee	6d	ce	d6	24	58	07	1a	6b	a1	f8	80	07	00	8c	6c	1f	a5	7d	6b	d3	02	b1	8f	8a	7d	06	68	5b	03	a8	56	85	f6	b5	c6	0f	68	c3	bc	ae	70	db	e9	fb	7d	e5	2f	3b	90	e3	ba	93	d0	c5	2b	1f	51	f6	25	44	e9	8b	1d	90	bb	78	2d	ac	dc	9b	ee	20	c5	ff	69	52	f0	e9	07	41	50	0d	4e	40	22	39	2c	f5	b0	10	89	df	ad	05	fb	0f	a6	a1	c1	ab	b2	98	7a	b0	0d	04	34	dc	39	62	96	f1	c7	44	a2	66	b1	5d	fc	33	22	a6	ad	57	c2	a8	6a	0a	e0	82	c5	54	5b	47	ff	0e	3e	82	97	66	91	6a	a6	4b	dc	75	14	82	f6	11	10	5e	ae	13	45	c8	72	aa	7a	1b	4c	53	10	2c	56	d8	87	c2	83	bb	d5	57	4a	fc	0f	f4	2e	a1	3b	81	23	9d	d8	5c	3b	ce	60	86	18	46	94	c6	aa	bd	6b	bd	24	be	d3	09	45	d8	3a	40	ed	d7	e1	85	94	0f	e0	23	20	6c	0a	f7	92	ea	7b	70	b5	a2	36	d3	83	88	d5	03	cf	db	22	e2	56	93	d8	ff	7b	e8	60	ec	95	81	28	f7	22	d9	c9	7a	df	8e	19	1d	81	b8	cc	dd	17	e5	60	d3	62	d6	69	8f	77	01	e0	16	e2	19	d5	34	0c	47	13	cb	54	bb	8d	48	64	28	48	92	04	ce	cd	c8	a5	a3	5e	63	0b	fc	ad	d0	70	a8	e1	12	03	6e	15	e4	ca	89	9c	21	78	95	9d	f6	e9	ea	8c	29	fa	90	b0	d9	92	c0	b2	f0	1f	6a	7c	d5	25	e9	77	8b	d1	4c	07	59	26	40	1d	81	1b	b3	0f	33	f8	fd	21	e8	91	bf	2d	a3	8a	f2	a1	dd	99	6e	1d	df	7c	21	13	e3	db	3c	a4	44	bf	83	65	9a	fe	65	e9	68	41	69	ef	94	53	0e	f4	11	90	f6	86	e2	b3	c6	5f	b4	33	b3	ab	aa	70	2d	fd	3e	9c	1c	e7	b7	ce	37	0e	11	8e	9f	6d	be	9f	66	b9	19	73	07	11	9d	7f	78	dd	05	b5	b1	10	8e	a3	b3	7a	9c	ec	7f	4a	b7	98	3a	c2	06	78	bd	3d	
7e	67	99	a3	db	7b	11	aa	ed	99	3f	fe	d6	cd	ba	ea	90	06	b8	54	59	46	57	03	75	ea	e5	5d	ae	d5	5b	42	38	51	0a	97	35	49	d9	2b	9e	9f	1f	07	a4	f5	b2	de	ac	df	a4	59	79	11	47	72	26	f7	f4	8b	ae	cf	f2	d9	7f	73	24	67	ee	6d	ce	d6	24	58	07	1a	6b	a1	f8	80	07	00	8c	6c	1f	a5	7d	6b	d3	02	b1	8f	8a	7d	06	68	5b	03	a8	56	85	f6	b5	c6	0f	68	c3	bc	ae	70	db	e9	fb	7d	e5	2f	3b	90	e3	ba	93	d0	c5	2b	1f	51	f6	25	44	e9	8b	1d	90	bb	78	2d	ac	dc	9b	ee	20	c5	ff	69	52	f0	e9	07	41	50	0d	4e	40	22	39	2c	f5	b0	10	89	df	ad	05	fb	0f	a6	a1	c1	ab	b2	98	7a	b0	0d	04	34	dc	39	62	96	f1	c7	44	a2	66	b1	5d	fc	33	22	a6	ad	57	c2	a8	6a	0a	e0	82	c5	54	5b	47	ff	0e	3e	82	97	66	91	6a	a6	4b	dc	75	14	82	f6	11	10	5e	ae	13	45	c8	72	aa	7a	1b	4c	53	10	2c	56	d8	87	c2	83	bb	d5	57	4a	fc	0f	f4	2e	a1	3b	81	23	9d	d8	5c	3b	ce	60	86	18	46	94	c6	aa	bd	6b	bd	24	be	d3	09	45	d8	3a	40	ed	d7	e1	85	94	0f	e0	23	20	6c	0a	f7	92	ea	7b	70	b5	a2	36	d3	83	88	d5	03	cf	db	22	e2	56	93	d8	ff	7b	e8	60	ec	95	81	28	f7	22	d9	c9	7a	df	8e	19	1d	81	b8	cc	dd	17	e5	60	d3	62	d6	69	8f	77	01	e0	16	e2	19	d5	34	0c	47	13	cb	54	bb	8d	48	64	28	48	92	04	ce	cd	c8	a5	a3	5e	63	0b	fc	ad	d0	70	a8	e1	12	03	6e	15	e4	ca	89	9c	21	78	95	9d	f6	e9	ea	8c	29	fa	90	b0	d9	92	c0	b2	f0	1f	6a	7c	d5	25	e9	77	8b	d1	4c	07	59	26	40	1d	81	1b	b3	0f	33	f8	fd	21	e8	91	bf	2d	a3	8a	f2	a1	dd	99	6e	1d	df	7c	21	13	e3	db	3c	a4	44	bf	83	65	9a	fe	65	e9	68	41	69	ef	94	53	0e	f4	11	90	f6	86	e2	b3	c6	5f	b4	33	b3	ab	aa	70	2d	fd	3e	9c	1c	e7	b7	ce	37	0e	11	8e	9f	6d	be	9f	66	b9	19	73	07	11	9d	7f	78	dd	05	b5	b1	10	8e	a3	b3	7a	9c	ec	7f	4a	b7	98	3a	c2	06	78	bd	3d	
7e	67	99	a3	db	7b	11	aa	ed	99	3f	fe	d6	cd	ba	ea	90	06	b8	54	59	46	57	03	75	ea	e5	5d	ae	d5	5b	42	38	51	0a	97	35	49	d9	2b	9e	9f	1f	07	a4	f5	b2	de	ac	df	a4	59	79	11	47	72	26	f7	f4	8b	ae	cf	f2	d9	7f	73	24	67	ee	6d	ce	d6	24	58	07	1a	6b	a1	f8	80	07	00	8c	6c	1f	a5	7d	6b	d3	02	b1	8f	8a	7d	06	68	5b	03	a8	56	85	f6	b5	c6	0f	68	c3	bc	ae	70	db	e9	fb	7d	e5	2f	3b	90	e3	ba	93	d0	c5	2b	1f	51	f6	25	44	e9	8b	1d	90	bb	78	2d	ac	dc	9b	ee	20	c5	ff	69	52	f0	e9	07	41	50	0d	4e	40	22	39	2c	f5	b0	10	89	df	ad	05	fb	0f	a6	a1	c1	ab	b2	98	7a	b0	0d	04	34	dc	39	62	96	f1	c7	44	a2	66	b1	5d	fc	33	22	a6	ad	57	c2	a8	6a	0a	e0	82	c5	54	5b	47	ff	0e	3e	82	97	66	91	6a	a6	4b	dc	75	14	82	f6	11	10	5e	ae	13	45	c8	72	aa	7a	1b	4c	53	10	2c	56	d8	87	c2	83	bb	d5	57	4a	fc	0f	f4	2e	a1	3b	81	23	9d	d8	5c	3b	ce	60	86	18	46	94	c6	aa	bd	6b	bd	24	be	d3	09	45	d8	3a	40	ed	d7	e1	85	94	0f	e0	23	20	6c	0a	f7	92	ea	7b	70	b5	a2	36	d3	83	88	d5	03	cf	db	22	e2	56	93	d8	ff	7b	e8	60	ec	95	81	28	f7	22	d9	c9	7a	df	8e	19	1d	81	b8	cc	dd	17	e5	60	d3	62	d6	69	8f	77	01	e0	16	e2	19	d5	34	0c	47	13	cb	54	bb	8d	48	64	28	48	92	04	ce	cd	c8	a5	a3	5e	63	0b	fc	ad	d0	70	a8	e1	12	03	6e	15	e4	ca	89	9c	21	78	95	9d	f6	e9	ea	8c	29	fa	90	b0	d9	92	c0	b2	f0	1f	6a	7c	d5	25	e9	77	8b	d1	4c	07	59	26	40	1d	81	1b	b3	0f	33	f8	fd	21	e8	91	bf	2d	a3	8a	f2	a1	dd	99	6e	1d	df	7c	21	13	e3	db	3c	a4	44	bf	83	65	9a	fe	65	e9	68	41	69	ef	94	53	0e	f4	11	90	f6	86	e2	b3	c6	5f	b4	33	b3	ab	aa	70	2d	fd	3e	9c	1c	e7	b7	ce	37	0e	11	8e	9f	6d	be	9f	66	b9	19	73	07	11	9d	7f	78	dd	05	b5	b1	10	8e	a3	b3	7a	9c	ec	7f	4a	b7	98	3a	c2	06	78	bd	3d	
7e	67	99	a3	db	7b	11	aa	ed	99	3f	fe	d6	cd	ba	ea	90	06	b8	54	59	46	57	03	75	ea	e5	5d	ae	d5	5b	42	38	51	0a	97	35	49	d9	2b	9e	9f	1f	07	a4	f5	b2	de	ac	df	a4	59	79	11	47	72	26	f7	f4	8b	ae	cf	f2	d9	7f	73	24	67	ee	6d	ce	d6	24	58	07	1a	6b	a1	f8	80	07	00	8c	6c	1f	a5	7d	6b	d3	02	b1	8f	8a	7d	06	68	5b	03	a8	56	85	f6	b5	c6	0f	68	c3	bc	ae	70	db	e9	fb	7d	e5	2f	3b	90	e3	ba	93	d0	c5	2b	1f	51	f6	25	44	e9	8b	1d	90	bb	78	2d	ac	dc	9b	ee	20	c5	ff	69	52	f0	e9	07	41	50	0d	4e	40	22	39	2c	f5	b0	10	89	df	ad	05	fb	0f	a6	a1	c1	ab	b2	98	7a	b0	0d	04	34	dc	39	62	96	f1	c7	44	a2	66	b1	5d	fc	33	22	a6	ad	57	c2	a8	6a	0a	e0	82	c5	54	5b	47	ff	0e	3e	82	97	66	91	6a	a6	4b	dc	75	14	82	f6	11	10	5e	ae	13	45	c8	72	aa	7a	1b	4c	53	10	2c	56	d8	87	c2	83	bb	d5	57	4a	fc	0f	f4	2e	a1	3b	81	23	9d	d8	5c	3b	ce	60	86	18	46	94	c6	aa	bd	6b	bd	24	be	d3	09	45	d8	3a	40	ed	d7	e1	85	94	0f	e0	23	20	6c	0a	f7	92	ea	7b	70	b5	a2	36	d3	83	88	d5	03	cf	db	22	e2	56	93	d8	ff	7b	e8	60	ec	95	81	28	f7	22	d9	c9	7a	df	8e	19	1d	81	b8	cc	dd	17	e5	60	d3	62	d6	69	8f	77	01	e0	16	e2	19	d5	34	0c	47	13	cb	54	bb	8d	48	64	28	48	92	04	ce	cd	c8	a5	a3	5e	63	0b	fc	ad	d0	70	a8	e1	12	03	6e	15	e4	ca	89	9c	21	78	95	9d	f6	e9	ea	8c	29	fa	90	b0	d9	92	c0	b2	f0	1f	6a	7c	d5	25	e9	77	8b	d1	4c	07	59	26	40	1d	81	1b	b3	0f	33	f8	fd	21	e8	91	bf	2d	a3	8a	f2	a1	dd	99	6e	1d	df	7c	21	13	e3	db	3c	a4	44	bf	83	65	9a	fe	65	e9	68	41	69	ef	94	53	0e	f4	11	90	f6	86	e2	b3	c6	5f	b4	33	b3	ab	aa	70	2d	fd	3e	9c	1c	e7	b7	ce	37	0e	11	8e	9f	6d	be	9f	66	b9	19	73	07	11	9d	7f	78	dd	05	b5	b1	10	8e	a3	b3	7a	9c	ec	7f	4a	b7	98	3a	c2	06	78	bd	3d	
7e	67	99	a3	db	7b	11	aa	ed	99	3f	fe	d6	cd	ba	ea	90	06	b8	54	59	46	57	03	75	ea	e5	5d	ae	d5	5b	42	38	51	0a	97	35	49	d9	2b	9e	9f	1f	07	a4	f5	b2	de	ac	df	a4	59	79	11	47	72	26	f7	f4	8b	ae	cf	f2	d9	7f	73	24	67	ee	6d	ce	d6	24	58	07	1a	6b	a1	f8	80	07	00	8c	6c	1f	a5	7d	6b	d3	02	b1	8f	8a	7d	06	68	5b	03	a8	56	85	f6	b5	c6	0f	68	c3	bc	ae	70	db	e9	fb	7d	e5	2f	3b	90	e3	ba	93	d0	c5	2b	1f	51	f6	25	44	e9	8b	1d	90	bb	78	2d	ac	dc	9b	ee	20	c5	ff	69	52	f0	e9	07	41	50	0d	4e	40	22	39	2c	f5	b0	10	89	df	ad	05	fb	0f	a6	a1	c1	ab	b2	98	7a	b0	0d	04	34	dc	39	62	96	f1	c7	44	a2	66	b1	5d	fc	33	22	a6	ad	57	c2	a8	6a	0a	e0	82	c5	54	5b	47	ff	0e	3e	82	97	66	91	6a	a6	4b	dc	75	14	82	f6	11	10	5e	ae	13	45	c8	72	aa	7a	1b	4c	53	10	2c	56	d8	87	c2	83	bb	d5	57	4a	fc	0f	f4	2e	a1	3b	81	23	9d	d8	5c	3b	ce	60	86	18	46	94	c6	aa	bd	6b	bd	24	be	d3	09	45	d8	3a	40	ed	d7	e1	85	94	0f	e0	23	20	6c	0a	f7	92	ea	7b	70	b5	a2	36	d3	83	88	d5	03	cf	db	22	e2	56	93	d8	ff	7b	e8	60	ec	95	81	28	f7	22	d9	c9	7a	df	8e	19	1d	81	b8	cc	dd	17	e5	60	d3	62	d6	69	8f	77	01	e0	16	e2	19	d5	34	0c	47	13	cb	54	bb	8d	48	64	28	48	92	04	ce	cd	c8	a5	a3	5e	63	0b	fc	ad	d0	70	a8	e1	12	03	6e	15	e4	ca	89	9c	21	78	95	9d	f6	e9	ea	8c	29	fa	90	b0	d9	92	c0	b2	f0	1f	6a	7c	d5	25	e9	77	8b	d1	4c	07	59	26	40	1d	81	1b	b3	0f	33	f8	fd	21	e8	91	bf	2d	a3	8a	f2	a1	dd	99	6e	1d	df	7c	21	13	e3	db	3c	a4	44	bf	83	65	9a	fe	65	e9	68	41	69	ef	94	53	0e	f4	11	90	f6	86	e2	b3	c6	5f	b4	33	b3	ab	aa	70	2d	fd	3e	9c	1c	e7	b7	ce	37	0e	11	8e	9f	6d	be	9f	66	b9	19	73	07	11	9d	7f	78	dd	05	b5	b1	10	8e	a3	b3	7a	9c	ec	7f	4a	b7	98	3a	c2	06	78	bd	3d	
7e	67	99	a3	db	7b	11	aa	ed	99	3f	fe	d6	cd	ba	ea	90	06	b8	54	59	46	57	03	75	ea	e5	5d	ae	d5	5b	42	38	51	0a	97	35	49	d9	2b	9e	9f	1f	07	a4	f5	b2	de	ac	df	a4	59	79	11	47	72	26	f7	f4	8b	ae	cf	f2	d9	7f	73	24	67	ee	6d	ce	d6	24	58	07	1a	6b	a1	f8	80	07	00	8c	6c	1f	a5	7d	6b	d3	02	b1	8f	8a	7d	06	68	5b	03	a8	56	85	f6	b5	c6	0f	68	c3	bc	ae	70	db	e9	fb	7d	e5	2f	3b	90	e3	ba	93	d0	c5	2b	1f	51	f6	25	44	e9	8b	1d	90	bb	78	2d	ac	dc	9b	ee	20	c5	ff	69	52	f0	e9	07	41	50	0d	4e	40	22	39	2c	f5	b0	10	89	df	ad	05	fb	0f	a6	a1	c1	ab	b2	98	7a	b0	0d	04	34	dc	39	62	96	f1	c7	44	a2	66	b1	5d	fc	33	22	a6	ad	57	c2	a8	6a	0a	e0	82	c5	54	5b	47	ff	0e	3e	82	97	66	91	6a	a6	4b	dc	75	14	82	f6	11	10	5e	ae	13	45	c8	72	aa	7a	1b	4c	53	10	2c	56	d8	87	c2	83	bb	d5	57	4a	fc	0f	f4	2e	a1	3b	81	23	9d	d8	5c	3b	ce	60	86	18	46	94	c6	aa	bd	6b	bd	24	be	d3	09	45	d8	3a	40	ed	d7	e1	85	94	0f	e0	23	20	6c	0a	f7	92	ea	7b	70	b5	a2	36	d3	83	88	d5	03	cf	db	22	e2	56	93	d8	ff	7b	e8	60	ec	95	81	28	f7	22	d9	c9	7a	df	8e	19	1d	81	b8	cc	dd	17	e5	60	d3	62	d6	69	8f	77	01	e0	16	e2	19	d5	34	0c	47	13	cb	54	bb	8d	48	64	28	48	92	04	ce	cd	c8	a5	a3	5e	63	0b	fc	ad	d0	70	a8	e1	12	03	6e	15	e4	ca	89	9c	21	78	95	9d	f6	e9	ea	8c	29	fa	90	b0	d9	92	c0	b2	f0	1f	6a	7c	d5	25	e9	77	8b	d1	4c	07	59	26	40	1d	81	1b	b3	0f	33	f8	fd	21	e8	91	bf	2d	a3	8a	f2	a1	dd	99	6e	1d	df	7c	21	13	e3	db	3c	a4	44	bf	83	65	9a	fe	65	e9	68	41	69	ef	94	53	0e	f4	11	90	f6	86	e2	b3	c6	5f	b4	33	b3	ab	aa	70	2d	fd	3e	9c	1c	e7	b7	ce	37	0e	11	8e	9f	6d	be	9f	66	b9	19	73	07	11	9d	7f	78	dd	05	b5	b1	10	8e	a3	b3	7a	9c	ec	7f	4a	b7	98	3a	c2	06	78	bd	3d	
7e	67	99	a3	db	7b	11	aa	ed	99	3f	fe	d6	cd	ba	ea	90	06	b8	54	59	46	57	03	75	ea	e5	5d	ae	d5	5b	42	38	51	0a	97	35	49	d9	2b	9e	9f	1f	07	a4	f5	b2	de	ac	df	a4	59	79	11	47	72	26	f7	f4	8b	ae	cf	f2	d9	7f	73	24	67	ee	6d	ce	d6	24	58	07	1a	6b	a1	f8	80	07	00	8c	6c	1f	a5	7d	6b	d3	02	b1	8f	8a	7d	06	68	5b	03	a8	56	85	f6	b5	c6	0f	68	c3	bc	ae	70	db	e9	fb	7d	e5	2f	3b	90	e3	ba	93	d0	c5	2b	1f	51	f6	25	44	e9	8b	1d	90	bb	78	2d	ac	dc	9b	ee	20	c5	ff	69	52	f0	e9	07	41	50	0d	4e	40	22	39	2c	f5	b0	10	89	df	ad	05	fb	0f	a6	a1	c1	ab	b2	98	7a	b0	0d	04	34	dc	39	62	96	f1	c7	44	a2	66	b1	5d	fc	33	22	a6	ad	57	c2	a8	6a	0a	e0	82	c5	54	5b	47	ff	0e	3e	82	97	66	91	6a	a6	4b	dc	75	14	82	f6	11	10	5e	ae	13	45	c8	72	aa	7a	1b	4c	53	10	2c	56	d8	87	c2	83	bb	d5	57	4a	fc	0f	f4	2e	a1	3b	81	23	9d	d8	5c	3b	ce	60	86	18	46	94	c6	aa	bd	6b	bd	24	be	d3	09	45	d8	3a	40	ed	d7	e1	85	94	0f	e0	23	20	6c	0a	f7	92	ea	7b	70	b5	a2	36	d3	83	88	d5	03	cf	db	22	e2	56	93	d8	ff	7b	e8	60	ec	95	81	28	f7	22	d9	c9	7a	df	8e	19	1d	81	b8	cc	dd	17	e5	60	d3	62	d6	69	8f	77	01	e0	16	e2	19	d5	34	0c	47	13	cb	54	bb	8d	48	64	28	48	92	04	ce	cd	c8	a5	a3	5e	63	0b	fc	ad	d0	70	a8	e1	12	03	6e	15	e4	ca	89	9c	21	78	95	9d	f6	e9	ea	8c	29	fa	90	b0	d9	92	c0	b2	f0	1f	6a	7c	d5	25	e9	77	8b	d1	4c	07	59	26	40	1d	81	1b	b3	0f	33	f8	fd	21	e8	91	bf	2d	a3	8a	f2	a1	dd	99	6e	1d	df	7c	21	13	e3	db	3c	a4	44	bf	83	65	9a	fe	65	e9	68	41	69	ef	94	53	0e	f4	11	90	f6	86	e2	b3	c6	5f	b4	33	b3	ab	aa	70	2d	fd	3e	9c	1c	e7	b7	ce	37	0e	11	8e	9f	6d	be	9f	66	b9	19	73	07	11	9d	7f	78	dd	05	b5	b1	10	8e	a3	b3	7a	9c	ec	7f	4a	b7	98	3a	c2	06	78	bd	3d	
7e	67	99	a3	db	7b	11	aa	ed	99	3f	fe	d6	cd	ba	ea	90	06	b8	54	59	46	57	03	75	ea	e5	5d	ae	d5	5b	42	38	51	0a	97	35	49	d9	2b	9e	9f	1f	07	a4	f5	b2	de	ac	df	a4	59	79	11	47	72	26	f7	f4	8b	ae	cf	f2	d9	7f	73	24	67	ee	6d	ce	d6	24	58	07	1a	6b	a1	f8	80	07	00	8c	6c	1f	a5	7d	6b	d3	02	b1	8f	8a	7d	06	68	5b	03	a8	56	85	f6	b5	c6	0f	68	c3	bc	ae	70	db	e9	fb	7d	e5	2f	3b	90	e3	ba	93	d0	c5	2b	1f	51	f6	25	44	e9	8b	1d	90	bb	78	2d	ac	dc	9b	ee	20	c5	ff	69	52	f0	e9	07	41	50	0d	4e	40	22	39	2c	f5	b0	10	89	df	ad	05	fb	0f	a6	a1	c1	ab	b2	98	7a	b0	0d	04	34	dc	39	62	96	f1	c7	44	a2	66	b1	5d	fc	33	22	a6	ad	57	c2	a8	6a	0a	e0	82	c5	54	5b	47	ff	0e	3e	82	97	66	91	6a	a6	4b	dc	75	14	82	f6	11	10	5e	ae	13	45	c8	72	aa	7a	1b	4c	53	10	2c	56	d8	87	c2	83	bb	d5	57	4a	fc	0f	f4	2e	a1	3b	81	23	9d	d8	5c	3b	ce	60	86	18	46	94	c6	aa	bd	6b	bd	24	be	d3	09	45	d8	3a	40	ed	d7	e1	85	94	0f	e0	23	20	6c	0a	f7	92	ea	7b	70	b5	a2	36	d3	83	88	d5	03	cf	db	22	e2	56	93	d8	ff	7b	e8	60	ec	95	81	28	f7	22	d9	c9	7a	df	8e	19	1d	81	b8	cc	dd	17	e5	60	d3	62	d6	69	8f	77	01	e0	16	e2	19	d5	34	0c	47	13	cb	54	bb	8d	48	64	28	48	92	04	ce	cd	c8	a5	a3	5e	63	0b	fc	ad	d0	70	a8	e1	12	03	6e	15	e4	ca	89	9c	21	78	95	9d	f6	e9	ea	8c	29	fa	90	b0	d9	92	c0	b2	f0	1f	6a	7c	d5	25	e9	77	8b	d1	4c	07	59	26	40	1d	81	1b	b3	0f	33	f8	fd	21	e8	91	bf	2d	a3	8a	f2	a1	dd	99	6e	1d	df	7c	21	13	e3	db	3c	a4	44	bf	83	65	9a	fe	65	e9	68	41	69	ef	94	53	0e	f4	11	90	f6	86	e2	b3	c6	5f	b4	33	b3	ab	aa	70	2d	fd	3e	9c	1c	e7	b7	ce	37	0e	11	8e	9f	6d	be	9f	66	b9	19	73	07	11	9d	7f	78	dd	05	b5	b1	10	8e	a3	b3	7a	9c	ec	7f	4a	b7	98	3a	c2	06	78	bd	3d	
7e	67	99	a3	db	7b	11	aa	ed	99	3f	fe	d6	cd	ba	ea	90	06	b8	54	59	46	57	03	75	ea	e5	5d	ae	d5	5b	42	38	51	0a	97	35	49	d9	2b	9e	9f	1f	07	a4	f5	b2	de	ac	df	a4	59	79	11	47	72	26	f7	f4	8b	ae	cf	f2	d9	7f	73	24	67	ee	6d	ce	d6	24	58	07	1a	6b	a1	f8	80	07	00	8c	6c	1f	a5	7d	6b	d3	02	b1	8f	8a	7d	06	68	5b	03	a8	56	85	f6	b5	c6	0f	68	c3	bc	ae	70	db	e9	fb	7d	e5	2f	3b	90	e3	ba	93	d0	c5	2b	1f	51	f6	25	44	e9	8b	1d	90	bb	78	2d	ac	dc	9b	ee	20	c5	ff	69	52	f0	e9	07	41	50	0d	4e	40	22	39	2c	f5	b0	10	89	df	ad	05	fb	0f	a6	a1	c1	ab	b2	98	7a	b0	0d	04	34	dc	39	62	96	f1	c7	44	a2	66	b1	5d	fc	33	22	a6	ad	57	c2	a8	6a	0a	e0	82	c5	54	5b	47	ff	0e	3e	82	97	66	91	6a	a6	4b	dc	75	14	82	f6	11	10	5e	ae	13	45	c8	72	aa	7a	1b	4c	53	10	2c	56	d8	87	c2	83	bb	d5	57	4a	fc	0f	f4	2e	a1	3b	81	23	9d	d8	5c	3b	ce	60	86	18	46	94	c6	aa	bd	6b	bd	24	be	d3	09	45	d8	3a	40	ed	d7	e1	85	94	0f	e0	23	20	6c	0a	f7	92	ea	7b	70	b5	a2	36	d3	83	88	d5	03	cf	db	22	e2	56	93	d8	ff	7b	e8	60	ec	95	81	28	f7	22	d9	c9	7a	df	8e	19	1d	81	b8	cc	dd	17	e5	60	d3	62	d6	69	8f	77	01	e0	16	e2	19	d5	34	0c	47	13	cb	54	bb	8d	48	64	28	48	92	04	ce	cd	c8	a5	a3	5e	63	0b	fc	ad	d0	70	a8	e1	12	03	6e	15	e4	ca	89	9c	21	78	95	9d	f6	e9	ea	8c	29	fa	90	b0	d9	92	c0	b2	f0	1f	6a	7c	d5	25	e9	77	8b	d1	4c	07	59	26	40	1d	81	1b	b3	0f	33	f8	fd	21	e8	91	bf	2d	a3	8a	f2	a1	dd	99	6e	1d	df	7c	21	13	e3	db	3c	a4	44	bf	83	65	9a	fe	65	e9	68	41	69	ef	94	53	0e	f4	11	90	f6	86	e2	b3	c6	5f	b4	33	b3	ab	aa	70	2d	fd	3e	9c	1c	e7	b7	ce	37	0e	11	8e	9f	6d	be	9f	66	b9	19	73	07	11	9d	7f	78	dd	05	b5	b1	10	8e	a3	b3	7a	9c	ec	7f	4a	b7	98	3a	c2	06	78	bd	3d	
7e	67	99	a3	db	7b	11	aa	ed	99	3f	fe	d6	cd	ba	ea	90	06	b8	54	59	46	57	03	75	ea	e5	5d	ae	d5	5b	42	38	51	0a	97	35	49	d9	2b	9e	9f	1f	07	a4	f5	b2	de	ac	df	a4	59	79	11	47	72	26	f7	f4	8b	ae	cf	f2	d9	7f	73	24	67	ee	6d	ce	d6	24	58	07	1a	6b	a1	f8	80	07	00	8c	6c	1f	a5	7d	6b	d3	02	b1	8f	8a	7d	06	68	5b	03	a8	56	85	f6	b5	c6	0f	68	c3	bc	ae	70	db	e9	fb	7d	e5	2f	3b	90	e3	ba	93	d0	c5	2b	1f	51	f6	25	44	e9	8b	1d	90	bb	78	2d	ac	dc	9b	ee	20	c5	ff	69	52	f0	e9	07	41	50	0d	4e	40	22	39	2c	f5	b0	10	89	df	ad	05	fb	0f	a6	a1	c1	ab	b2	98	7a	b0	0d	04	34	dc	39	62	96	f1	c7	44	a2	66	b1	5d	fc	33	22	a6	ad	57	c2	a8	6a	0a	e0	82	c5	54	5b	47	ff	0e	3e	82	97	66	91	6a	a6	4b	dc	75	14	82	f6	11	10	5e	ae	13	45	c8	72	aa	7a	1b	4c	53	10	2c	56	d8	87	c2	83	bb	d5	57	4a	fc	0f	f4	2e	a1	3b	81	23	9d	d8	5c	3b	ce	60	86	18	46	94	c6	aa	bd	6b	bd	24	be	d3	09	45	d8	3a	40	ed	d7	e1	85	94	0f	e0	23	20	6c	0a	f7	92	ea	7b	70	b5	a2	36	d3	83	88	d5	03	cf	db	22	e2	56	93	d8	ff	7b	e8	60	ec	95	81	28	f7	22	d9	c9	7a	df	8e	19	1d	81	b8	cc	dd	17	e5	60	d3	62	d6	69	8f	77	01	e0	16	e2	19	d5	34	0c	47	13	cb	54	bb	8d	48	64	28	48	92	04	ce	cd	c8	a5	a3	5e	63	0b	fc	ad	d0	70	a8	e1	12	03	6e	15	e4	ca	89	9c	21	78	95	9d	f6	e9	ea	8c	29	fa	90	b0	d9	92	c0	b2	f0	1f	6a	7c	d5	25	e9	77	8b	d1	4c	07	59	26	40	1d	81	1b	b3	0f	33	f8	fd	21	e8	91	bf	2d	a3	8a	f2	a1	dd	99	6e	1d	df	7c	21	13	e3	db	3c	a4	44	bf	83	65	9a	fe	65	e9	68	41	69	ef	94	53	0e	f4	11	90	f6	86	e2	b3	c6	5f	b4	33	b3	ab	aa	70	2d	fd	3e	9c	1c	e7	b7	ce	37	0e	11	8e	9f	6d	be	9f	66	b9	19	73	07	11	9d	7f	78	dd	05	b5	b1	10	8e	a3	b3	7a	9c	ec	7f	4a	b7	98	3a	c2	06	78	bd	3d	
7e	67	99	a3	db	7b	11	aa	ed	99	3f	fe	d6	cd	ba	ea	90	06	b8	54	59	46	57	03	75	ea	e5	5d	ae	d5	5b	42	38	51	0a	97	35	49	d9	2b	9e	9f	1f	07	a4	f5	b2	de	ac	df	a4	59	79	11	47	72	26	f7	f4	8b	ae	cf	f2	d9	7f	73	24	67	ee	6d	ce	d6	24	58	07	1a	6b	a1	f8	80	07	00	8c	6c	1f	a5	7d	6b	d3	02	b1	8f	8a	7d	06	68	5b	03	a8	56	85	f6	b5	c6	0f	68	c3	bc	ae	70	db	e9	fb	7d	e5	2f	3b	90	e3	ba	93	d0	c5	2b	1f	51	f6	25	44	e9	8b	1d	90	bb	78	2d	ac	dc	9b	ee	20	c5	ff	69	52	f0	e9	07	41	50	0d	4e	40	22	39	2c	f5	b0	10	89	df	ad	05	fb	0f	a6	a1	c1	ab	b2	98	7a	b0	0d	04	34	dc	39	62	96	f1	c7	44	a2	66	b1	5d	fc	33	22	a6	ad	57	c2	a8	6a	0a	e0	82	c5	54	5b	47	ff	0e	3e	82	97	66	91	6a	a6	4b	dc	75	14	82	f6	11	10	5e	ae	13	45	c8	72	aa	7a	1b	4c	53	10	2c	56	d8	87	c2	83	bb	d5	57	4a	fc	0f	f4	2e	a1	3b	81	23	9d	d8	5c	3b	ce	60	86	18	46	94	c6	aa	bd	6b	bd	24	be	d3	09	45	d8	3a	40	ed	d7	e1	85	94	0f	e0	23	20	6c	0a	f7	92	ea	7b	70	b5	a2	36	d3	83	88	d5	03	cf	db	22	e2	56	93	d8	ff	7b	e8	60	ec	95	81	28	f7	22	d9	c9	7a	df	8e	19	1d	81	b8	cc	dd	17	e5	60	d3	62	d6	69	8f	77	01	e0	16	e2	19	d5	34	0c	47	13	cb	54	bb	8d	48	64	28	48	92	04	ce	cd	c8	a5	a3	5e	63	0b	fc	ad	d0	70	a8	e1	12	03	6e	15	e4	ca	89	9c	21	78	95	9d	f6	e9	ea	8c	29	fa	90	b0	d9	92	c0	b2	f0	1f	6a	7c	d5	25	e9	77	8b	d1	4c	07	59	26	40	1d	81	1b	b3	0f	33	f8	fd	21	e8	91	bf	2d	a3	8a	f2	a1	dd	99	6e	1d	df	7c	21	13	e3	db	3c	a4	44	bf	83	65	9a	fe	65	e9	68	41	69	ef	94	53	0e	f4	11	90	f6	86	e2	b3	c6	5f	b4	33	b3	ab	aa	70	2d	fd	3e	9c	1c	e7	b7	ce	37	0e	11	8e	9f	6d	be	9f	66	b9	19	73	07	11	9d	7f	78	dd	05	b5	b1	10	8e	a3	b3	7a	9c	ec	7f	4a	b7	98	3a	c2	06	78	bd	3d	
7e	67	99	a3	db	7b	11	aa	ed	99	3f	fe	d6	cd	ba	ea	90	06	b8	54	59	46	57	03	75	ea	e5	5d	ae	d5	5b	42	38	51	0a	97	35	49	d9	2b	9e	9f	1f	07	a4	f5	b2	de	ac	df	a4	59	79	11	47	72	26	f7	f4	8b	ae	cf	f2	d9	7f	73	24	67	ee	6d	ce	d6	24	58	07	1a	6b	a1	f8	80	07	00	8c	6c	1f	a5	7d	6b	d3	02	b1	8f	8a	7d	06	68	5b	03	a8	56	85	f6	b5	c6	0f	68	c3	bc	ae	70	db	e9	fb	7d	e5	2f	3b	90	e3	ba	93	d0	c5	2b	1f	51	f6	25	44	e9	8b	1d	90	bb	78	2d	ac	dc	9b	ee	20	c5	ff	69	52	f0	e9	07	41	50	0d	4e	40	22	39	2c	f5	b0	10	89	df	ad	05	fb	0f	a6	a1	c1	ab	b2	98	7a	b0	0d	04	34	dc	39	62	96	f1	c7	44	a2	66	b1	5d	fc	33	22	a6	ad	57	c2	a8	6a	0a	e0	82	c5	54	5b	47	ff	0e	3e	82	97	66	91	6a	a6	4b	dc	75	14	82	f6	11	10	5e	ae	13	45	c8	72	aa	7a	1b	4c	53	10	2c	56	d8	87	c2	83	bb	d5	57	4a	fc	0f	f4	2e	a1	3b	81	23	9d	d8	5c	3b	ce	60	86	18	46	94	c6	aa	bd	6b	bd	24	be	d3	09	45	d8	3a	40	ed	d7	e1	85	94	0f	e0	23	20	6c	0a	f7	92	ea	7b	70	b5	a2	36	d3	83	88	d5	03	cf	db	22	e2	56	93	d8	ff	7b	e8	60	ec	95	81	28	f7	22	d9	c9	7a	df	8e	19	1d	81	b8	cc	dd	17	e5	60	d3	62	d6	69	8f	77	01	e0	16	e2	19	d5	34	0c	47	13	cb	54	bb	8d	48	64	28	48	92	04	ce	cd	c8	a5	a3	5e	63	0b	fc	ad	d0	70	a8	e1	12	03	6e	15	e4	ca	89	9c	21	78	95	9d	f6	e9	ea	8c	29	fa	90	b0	d9	92	c0	b2	f0	1f	6a	7c	d5	25	e9	77	8b	d1	4c	07	59	26	40	1d	81	1b	b3	0f	33	f8	fd	21	e8	91	bf	2d	a3	8a	f2	a1	dd	99	6e	1d	df	7c	21	13	e3	db	3c	a4	44	bf	83	65	9a	fe	65	e9	68	41	69	ef	94	53	0e	f4	11	90	f6	86	e2	b3	c6	5f	b4	33	b3	ab	aa	70	2d	fd	3e	9c	1c	e7	b7	ce	37	0e	11	8e	9f	6d	be	9f	66	b9	19	73	07	11	9d	7f	78	dd	05	b5	b1	10	8e	a3	b3	7a	9c	ec	7f	4a	b7	98	3a	c2	06	78	bd	3d	
7e	67	99	a3	db	7b	11	aa	ed	99	3f	fe	d6	cd	ba	ea	90	06	b8	54	59	46	57	03	75	ea	e5	5d	ae	d5	5b	42	38	51	0a	97	35	49	d9	2b	9e	9f	1f	07	a4	f5	b2	de	ac	df	a4	59	79	11	47	72	26	f7	f4	8b	ae	cf	f2	d9	7f	73	24	67	ee	6d	ce	d6	24	58	07	1a	6b	a1	f8	80	07	00	8c	6c	1f	a5	7d	6b	d3	02	b1	8f	8a	7d	06	68	5b	03	a8	56	85	f6	b5	c6	0f	68	c3	bc	ae	70	db	e9	fb	7d	e5	2f	3b	90	e3	ba	93	d0	c5	2b	1f	51	f6	25	44	e9	8b	1d	90	bb	78	2d	ac	dc	9b	ee	20	c5	ff	69	52	f0	e9	07	41	50	0d	4e	40	22	39	2c	f5	b0	10	89	df	ad	05	fb	0f	a6	a1	c1	ab	b2	98	7a	b0	0d	04	34	dc	39	62	96	f1	c7	44	a2	66	b1	5d	fc	33	22	a6	ad	57	c2	a8	6a	0a	e0	82	c5	54	5b	47	ff	0e	3e	82	97	66	91	6a	a6	4b	dc	75	14	82	f6	11	10	5e	ae	13	45	c8	72	aa	7a	1b	4c	53	10	2c	56	d8	87	c2	83	bb	d5	57	4a	fc	0f	f4	2e	a1	3b	81	23	9d	d8	5c	3b	ce	60	86	18	46	94	c6	aa	bd	6b	bd	24	be	d3	09	45	d8	3a	40	ed	d7	e1	85	94	0f	e0	23	20	6c	0a	f7	92	ea	7b	70	b5	a2	36	d3	83	88	d5	03	cf	db	22	e2	56	93	d8	ff	7b	e8	60	ec	95	81	28	f7	22	d9	c9	7a	df	8e	19	1d	81	b8	cc	dd	17	e5	60	d3	62	d6	69	8f	77	01	e0	16	e2	19	d5	34	0c	47	13	cb	54	bb	8d	48	64	28	48	92	04	ce	cd	c8	a5	a3	5e	63	0b	fc	ad	d0	70	a8	e1	12	03	6e	15	e4	ca	89	9c	21	78	95	9d	f6	e9	ea	8c	29	fa	90	b0	d9	92	c0	b2	f0	1f	6a	7c	d5	25	e9	77	8b	d1	4c	07	59	26	40	1d	81	1b	b3	0f	33	f8	fd	21	e8	91	bf	2d	a3	8a	f2	a1	dd	99	6e	1d	df	7c	21	13	e3	db	3c	a4	44	bf	83	65	9a	fe	65	e9	68	41	69	ef	94	53	0e	f4	11	90	f6	86	e2	b3	c6	5f	b4	33	b3	ab	aa	70	2d	fd	3e	9c	1c	e7	b7	ce	37	0e	11	8e	9f	6d	be	9f	66	b9	19	73	07	11	9d	7f	78	dd	05	b5	b1	10	8e	a3	b3	7a	9c	ec	7f	4a	b7	98	3a	c2	06	78	bd	3d	
7e	67	99	a3	db	7b	11	aa	ed	99	3f	fe	d6	cd	ba	ea	90	06	b8	54	59	46	57	03	75	ea	e5	5d	ae	d5	5b	42	38	51	0a	97	35	49	d9	2b	9e	9f	1f	07	a4	f5	b2	de	ac	df	a4	59	79	11	47	72	26	f7	f4	8b	ae	cf	f2	d9	7f	73	24	67	ee	6d	ce	d6	24	58	07	1a	6b	a1	f8	80	07	00	8c	6c	1f	a5	7d	6b	d3	02	b1	8f	8a	7d	06	68	5b	03	a8	56	85	f6	b5	c6	0f	68	c3	bc	ae	70	db	e9	fb	7d	e5	2f	3b	90	e3	ba	93	d0	c5	2b	1f	51	f6	25	44	e9	8b	1d	90	bb	78	2d	ac	dc	9b	ee	20	c5	ff	69	52	f0	e9	07	41	50	0d	4e	40	22	39	2c	f5	b0	10	89	df	ad	05	fb	0f	a6	a1	c1	ab	b2	98	7a	b0	0d	04	34	dc	39	62	96	f1	c7	44	a2	66	b1	5d	fc	33	22	a6	ad	57	c2	a8	6a	0a	e0	82	c5	54	5b	47	ff	0e	3e	82	97	66	91	6a	a6	4b	dc	75	14	82	f6	11	10	5e	ae	13	45	c8	72	aa	7a	1b	4c	53	10	2c	56	d8	87	c2	83	bb	d5	57	4a	fc	0f	f4	2e	a1	3b	81	23	9d	d8	5c	3b	ce	60	86	18	46	94	c6	aa	bd	6b	bd	24	be	d3	09	45	d8	3a	40	ed	d7	e1	85	94	0f	e0	23	20	6c	0a	f7	92	ea	7b	70	b5	a2	36	d3	83	88	d5	03	cf	db	22	e2	56	93	d8	ff	7b	e8	60	ec	95	81	28	f7	22	d9	c9	7a	df	8e	19	1d	81	b8	cc	dd	17	e5	60	d3	62	d6	69	8f	77	01	e0	16	e2	19	d5	34	0c	47	13	cb	54	bb	8d	48	64	28	48	92	04	ce	cd	c8	a5	a3	5e	63	0b	fc	ad	d0	70	a8	e1	12	03	6e	15	e4	ca	89	9c	21	78	95	9d	f6	e9	ea	8c	29	fa	90	b0	d9	92	c0	b2	f0	1f	6a	7c	d5	25	e9	77	8b	d1	4c	07	59	26	40	1d	81	1b	b3	0f	33	f8	fd	21	e8	91	bf	2d	a3	8a	f2	a1	dd	99	6e	1d	df	7c	21	13	e3	db	3c	a4	44	bf	83	65	9a	fe	65	e9	68	41	69	ef	94	53	0e	f4	11	90	f6	86	e2	b3	c6	5f	b4	33	b3	ab	aa	70	2d	fd	3e	9c	1c	e7	b7	ce	37	0e	11	8e	9f	6d	be	9f	66	b9	19	73	07	11	9d	7f	78	dd	05	b5	b1	10	8e	a3	b3	7a	9c	ec	7f	4a	b7	98	3a	c2	06	78	bd	3d	
7e	67	99	a3	db	7b	11	aa	ed	99	3f	fe	d6	cd	ba	ea	90	06	b8	54	59	46	57	03	75	ea	e5	5d	ae	d5	5b	42	38	51	0a	97	35	49	d9	2b	9e	9f	1f	07	a4	f5	b2	de	ac	df	a4	59	79	11	47	72	26	f7	f4	8b	ae	cf	f2	d9	7f	73	24	67	ee	6d	ce	d6	24	58	07	1a	6b	a1	f8	80	07	00	8c	6c	1f	a5	7d	6b	d3	02	b1	8f	8a	7d	06	68	5b	03	a8	56	85	f6	b5	c6	0f	68	c3	bc	ae	70	db	e9	fb	7d	e5	2f	3b	90	e3	ba	93	d0	c5	2b	1f	51	f6	25	44	e9	8b	1d	90	bb	78	2d	ac	dc	9b	ee	20	c5	ff	69	52	f0	e9	07	41	50	0d	4e	40	22	39	2c	f5	b0	10	89	df	ad	05	fb	0f	a6	a1	c1	ab	b2	98	7a	b0	0d	04	34	dc	39	62	96	f1	c7	44	a2	66	b1	5d	fc	33	22	a6	ad	57	c2	a8	6a	0a	e0	82	c5	54	5b	47	ff	0e	3e	82	97	66	91	6a	a6	4b	dc	75	14	82	f6	11	10	5e	ae	13	45	c8	72	aa	7a	1b	4c	53	10	2c	56	d8	87	c2	83	bb	d5	57	4a	fc	0f	f4	2e	a1	3b	81	23	9d	d8	5c	3b	ce	60	86	18	46	94	c6	aa	bd	6b	bd	24	be	d3	09	45	d8	3a	40	ed	d7	e1	85	94	0f	e0	23	20	6c	0a	f7	92	ea	7b	70	b5	a2	36	d3	83	88	d5	03	cf	db	22	e2	56	93	d8	ff	7b	e8	60	ec	95	81	28	f7	22	d9	c9	7a	df	8e	19	1d	81	b8	cc	dd	17	e5	60	d3	62	d6	69	8f	77	01	e0	16	e2	19	d5	34	0c	47	13	cb	54	bb	8d	48	64	28	48	92	04	ce	cd	c8	a5	a3	5e	63	0b	fc	ad	d0	70	a8	e1	12	03	6e	15	e4	ca	89	9c	21	78	95	9d	f6	e9	ea	8c	29	fa	90	b0	d9	92	c0	b2	f0	1f	6a	7c	d5	25	e9	77	8b	d1	4c	07	59	26	40	1d	81	1b	b3	0f	33	f8	fd	21	e8	91	bf	2d	a3	8a	f2	a1	dd	99	6e	1d	df	7c	21	13	e3	db	3c	a4	44	bf	83	65	9a	fe	65	e9	68	41	69	ef	94	53	0e	f4	11	90	f6	86	e2	b3	c6	5f	b4	33	b3	ab	aa	70	2d	fd	3e	9c	1c	e7	b7	ce	37	0e	11	8e	9f	6d	be	9f	66	b9	19	73	07	11	9d	7f	78	dd	05	b5	b1	10	8e	a3	b3	7a	9c	ec	7f	4a	b7	98	3a	c2	06	78	bd	3d	
7e	67	99	a3	db	7b	11	aa	ed	99	3f	fe	d6	cd	ba	ea	90	06	b8	54	59	46	57	03	75	ea	e5	5d	ae	d5	5b	42	38	51	0a	97	35	49	d9	2b	9e	9f	1f	07	a4	f5	b2	de	ac	df	a4	59	79	11	47	72	26	f7	f4	8b	ae	cf	f2	d9	7f	73	24	67	ee	6d	ce	d6	24	58	07	1a	6b	a1	f8	80	07	00	8c	6c	1f	a5	7d	6b	d3	02	b1	8f	8a	7d	06	68	5b	03	a8	56	85	f6	b5	c6	0f	68	c3	bc	ae	70	db	e9	fb	7d	e5	2f	3b	90	e3	ba	93	d0	c5	2b	1f	51	f6	25	44	e9	8b	1d	90	bb	78	2d	ac	dc	9b	ee	20	c5	ff	69	52	f0	e9	07	41	50	0d	4e	40	22	39	2c	f5	b0	10	89	df	ad	05	fb	0f	a6	a1	c1	ab	b2	98	7a	b0	0d	04	34	dc	39	62	96	f1	c7	44	a2	66	b1	5d	fc	33	22	a6	ad	57	c2	a8	6a	0a	e0	82	c5	54	5b	47	ff	0e	3e	82	97	66	91	6a	a6	4b	dc	75	14	82	f6	11	10	5e	ae	13	45	c8	72	aa	7a	1b	4c	53	10	2c	56	d8	87	c2	83	bb	d5	57	4a	fc	0f	f4	2e	a1	3b	81	23	9d	d8	5c	3b	ce	60	86	18	46	94	c6	aa	bd	6b	bd	24	be	d3	09	45	d8	3a	40	ed	d7	e1	85	94	0f	e0	23	20	6c	0a	f7	92	ea	7b	70	b5	a2	36	d3	83	88	d5	03	cf	db	22	e2	56	93	d8	ff	7b	e8	60	ec	95	81	28	f7	22	d9	c9	7a	df	8e	19	1d	81	b8	cc	dd	17	e5	60	d3	62	d6	69	8f	77	01	e0	16	e2	19	d5	34	0c	47	13	cb	54	bb	8d	48	64	28	48	92	04	ce	cd	c8	a5	a3	5e	63	0b	fc	ad	d0	70	a8	e1	12	03	6e	15	e4	ca	89	9c	21	78	95	9d	f6	e9	ea	8c	29	fa	90	b0	d9	92	c0	b2	f0	1f	6a	7c	d5	25	e9	77	8b	d1	4c	07	59	26	40	1d	81	1b	b3	0f	33	f8	fd	21	e8	91	bf	2d	a3	8a	f2	a1	dd	99	6e	1d	df	7c	21	13	e3	db	3c	a4	44	bf	83	65	9a	fe	65	e9	68	41	69	ef	94	53	0e	f4	11	90	f6	86	e2	b3	c6	5f	b4	33	b3	ab	aa	70	2d	fd	3e	9c	1c	e7	b7	ce	37	0e	11	8e	9f	6d	be	9f	66	b9	19	73	07	11	9d	7f	78	dd	05	b5	b1	10	8e	a3	b3	7a	9c	ec	7f	4a	b7	98	3a	c2	06	78	bd	3d	
7e	67	99	a3	db	7b	11	aa	ed	99	3f	fe	d6	cd	ba	ea	90	06	b8	54	59	46	57	03	75	ea	e5	5d	ae	d5	5b	42	38	51	0a	97	35	49	d9	2b	9e	9f	1f	07	a4	f5	b2	de	ac	df	a4	59	79	11	47	72	26	f7	f4	8b	ae	cf	f2	d9	7f	73	24	67	ee	6d	ce	d6	24	58	07	1a	6b	a1	f8	80	07	00	8c	6c	1f	a5	7d	6b	d3	02	b1	8f	8a	7d	06	68	5b	03	a8	56	85	f6	b5	c6	0f	68	c3	bc	ae	70	db	e9	fb	7d	e5	2f	3b	90	e3	ba	93	d0	c5	2b	1f	51	f6	25	44	e9	8b	1d	90	bb	78	2d	ac	dc	9b	ee	20	c5	ff	69	52	f0	e9	07	41	50	0d	4e	40	22	39	2c	f5	b0	10	89	df	ad	05	fb	0f	a6	a1	c1	ab	b2	98	7a	b0	0d	04	34	dc	39	62	96	f1	c7	44	a2	66	b1	5d	fc	33	22	a6	ad	57	c2	a8	6a	0a	e0	82	c5	54	5b	47	ff	0e	3e	82	97	66	91	6a	a6	4b	dc	75	14	82	f6	11	10	5e	ae	13	45	c8	72	aa	7a	1b	4c	53	10	2c	56	d8	87	c2	83	bb	d5	57	4a	fc	0f	f4	2e	a1	3b	81	23	9d	d8	5c	3b	ce	60	86	18	46	94	c6	aa	bd	6b	bd	24	be	d3	09	45	d8	3a	40	ed	d7	e1	85	94	0f	e0	23	20	6c	0a	f7	92	ea	7b	70	b5	a2	36	d3	83	88	d5	03	cf	db	22	e2	56	93	d8	ff	7b	e8	60	ec	95	81	28	f7	22	d9	c9	7a	df	8e	19	1d	81	b8	cc	dd	17	e5	60	d3	62	d6	69	8f	77	01	e0	16	e2	19	d5	34	0c	47	13	cb	54	bb	8d	48	64	28	48	92	04	ce	cd	c8	a5	a3	5e	63	0b	fc	ad	d0	70	a8	e1	12	03	6e	15	e4	ca	89	9c	21	78	95	9d	f6	e9	ea	8c	29	fa	90	b0	d9	92	c0	b2	f0	1f	6a	7c	d5	25	e9	77	8b	d1	4c	07	59	26	40	1d	81	1b	b3	0f	33	f8	fd	21	e8	91	bf	2d	a3	8a	f2	a1	dd	99	6e	1d	df	7c	21	13	e3	db	3c	a4	44	bf	83	65	9a	fe	65	e9	68	41	69	ef	94	53	0e	f4	11	90	f6	86	e2	b3	c6	5f	b4	33	b3	ab	aa	70	2d	fd	3e	9c	1c	e7	b7	ce	37	0e	11	8e	9f	6d	be	9f	66	b9	19	73	07	11	9d	7f	78	dd	05	b5	b1	10	8e	a3	b3	7a	9c	ec	7f	4a	b7	98	3a	c2	06	78	bd	3d	
7e	67	99	a3	db	7b	11	aa	ed	99	3f	fe	d6	cd	ba	ea	90	06	b8	54	59	46	57	03	75	ea	e5	5d	ae	d5	5b	42	38	51	0a	97	35	49	d9	2b	9e	9f	1f	07	a4	f5	b2	de	ac	df	a4	59	79	11	47	72	26	f7	f4	8b	ae	cf	f2	d9	7f	73	24	67	ee	6d	ce	d6	24	58	07	1a	6b	a1	f8	80	07	00	8c	6c	1f	a5	7d	6b	d3	02	b1	8f	8a	7d	06	68	5b	03	a8	56	85	f6	b5	c6	0f	68	c3	bc	ae	70	db	e9	fb	7d	e5	2f	3b	90	e3	ba	93	d0	c5	2b	1f	51	f6	25	44	e9	8b	1d	90	bb	78	2d	ac	dc	9b	ee	20	c5	ff	69	52	f0	e9	07	41	50	0d	4e	40	22	39	2c	f5	b0	10	89	df	ad	05	fb	0f	a6	a1	c1	ab	b2	98	7a	b0	0d	04	34	dc	39	62	96	f1	c7	44	a2	66	b1	5d	fc	33	22	a6	ad	57	c2	a8	6a	0a	e0	82	c5	54	5b	47	ff	0e	3e	82	97	66	91	6a	a6	4b	dc	75	14	82	f6	11	10	5e	ae	13	45	c8	72	aa	7a	1b	4c	53	10	2c	56	d8	87	c2	83	bb	d5	57	4a	fc	0f	f4	2e	a1	3b	81	23	9d	d8	5c	3b	ce	60	86	18	46	94	c6	aa	bd	6b	bd	24	be	d3	09	45	d8	3a	40	ed	d7	e1	85	94	0f	e0	23	20	6c	0a	f7	92	ea	7b	70	b5	a2	36	d3	83	88	d5	03	cf	db	22	e2	56	93	d8	ff	7b	e8	60	ec	95	81	28	f7	22	d9	c9	7a	df	8e	19	1d	81	b8	cc	dd	17	e5	60	d3	62	d6	69	8f	77	01	e0	16	e2	19	d5	34	0c	47	13	cb	54	bb	8d	48	64	28	48	92	04	ce	cd	c8	a5	a3	5e	63	0b	fc	ad	d0	70	a8	e1	12	03	6e	15	e4	ca	89	9c	21	78	95	9d	f6	e9	ea	8c	29	fa	90	b0	d9	92	c0	b2	f0	1f	6a	7c	d5	25	e9	77	8b	d1	4c	07	59	26	40	1d	81	1b	b3	0f	33	f8	fd	21	e8	91	bf	2d	a3	8a	f2	a1	dd	99	6e	1d	df	7c	21	13	e3	db	3c	a4	44	bf	83	65	9a	fe	65	e9	68	41	69	ef	94	53	0e	f4	11	90	f6	86	e2	b3	c6	5f	b4	33	b3	ab	aa	70	2d	fd	3e	9c	1c	e7	b7	ce	37	0e	11	8e	9f	6d	be	9f	66	b9	19	73	07	11	9d	7f	78	dd	05	b5	b1	10	8e	a3	b3	7a	9c	ec	7f	4a	b7	98	3a	c2	06	78	bd	3d	
7e	67	99	a3	db	7b	11	aa	ed	99	3f	fe	d6	cd	ba	ea	90	06	b8	54	59	46	57	03	75	ea	e5	5d	ae	d5	5b	42	38	51	0a	97	35	49	d9	2b	9e	9f	1f	07	a4	f5	b2	de	ac	df	a4	59	79	11	47	72	26	f7	f4	8b	ae	cf	f2	d9	7f	73	24	67	ee	6d	ce	d6	24	58	07	1a	6b	a1	f8	80	07	00	8c	6c	1f	a5	7d	6b	d3	02	b1	8f	8a	7d	06	68	5b	03	a8	56	85	f6	b5	c6	0f	68	c3	bc	ae	70	db	e9	fb	7d	e5	2f	3b	90	e3	ba	93	d0	c5	2b	1f	51	f6	25	44	e9	8b	1d	90	bb	78	2d	ac	dc	9b	ee	20	c5	ff	69	52	f0	e9	07	41	50	0d	4e	40	22	39	2c	f5	b0	10	89	df	ad	05	fb	0f	a6	a1	c1	ab	b2	98	7a	b0	0d	04	34	dc	39	62	96	f1	c7	44	a2	66	b1	5d	fc	33	22	a6	ad	57	c2	a8	6a	0a	e0	82	c5	54	5b	47	ff	0e	3e	82	97	66	91	6a	a6	4b	dc	75	14	82	f6	11	10	5e	ae	13	45	c8	72	aa	7a	1b	4c	53	10	2c	56	d8	87	c2	83	bb	d5	57	4a	fc	0f	f4	2e	a1	3b	81	23	9d	d8	5c	3b	ce	60	86	18	46	94	c6	aa	bd	6b	bd	24	be	d3	09	45	d8	3a	40	ed	d7	e1	85	94	0f	e0	23	20	6c	0a	f7	92	ea	7b	70	b5	a2	36	d3	83	88	d5	03	cf	db	22	e2	56	93	d8	ff	7b	e8	60	ec	95	81	28	f7	22	d9	c9	7a	df	8e	19	1d	81	b8	cc	dd	17	e5	60	d3	62	d6	69	8f	77	01	e0	16	e2	19	d5	34	0c	47	13	cb	54	bb	8d	48	64	28	48	92	04	ce	cd	c8	a5	a3	5e	63	0b	fc	ad	d0	70	a8	e1	12	03	6e	15	e4	ca	89	9c	21	78	95	9d	f6	e9	ea	8c	29	fa	90	b0	d9	92	c0	b2	f0	1f	6a	7c	d5	25	e9	77	8b	d1	4c	07	59	26	40	1d	81	1b	b3	0f	33	f8	fd	21	e8	91	bf	2d	a3	8a	f2	a1	dd	99	6e	1d	df	7c	21	13	e3	db	3c	a4	44	bf	83	65	9a	fe	65	e9	68	41	69	ef	94	53	0e	f4	11	90	f6	86	e2	b3	c6	5f	b4	33	b3	ab	aa	70	2d	fd	3e	9c	1c	e7	b7	ce	37	0e	11	8e	9f	6d	be	9f	66	b9	19	73	07	11	9d	7f	78	dd	05	b5	b1	10	8e	a3	b3	7a	9c	ec	7f	4a	b7	98	3a	c2	06	78	bd	3d	
7e	67	99	a3	db	7b	11	aa	ed	99	3f	fe	d6	cd	ba	ea	90	06	b8	54	59	46	57	03	75	ea	e5	5d	ae	d5	5b	42	38	51	0a	97	35	49	d9	2b	9e	9f	1f	07	a4	f5	b2	de	ac	df	a4	59	79	11	47	72	26	f7	f4	8b	ae	cf	f2	d9	7f	73	24	67	ee	6d	ce	d6	24	58	07	1a	6b	a1	f8	80	07	00	8c	6c	1f	a5	7d	6b	d3	02	b1	8f	8a	7d	06	68	5b	03	a8	56	85	f6	b5	c6	0f	68	c3	bc	ae	70	db	e9	fb	7d	e5	2f	3b	90	e3	ba	93	d0	c5	2b	1f	51	f6	25	44	e9	8b	1d	90	bb	78	2d	ac	dc	9b	ee	20	c5	ff	69	52	f0	e9	07	41	50	0d	4e	40	22	39	2c	f5	b0	10	89	df	ad	05	fb	0f	a6	a1	c1	ab	b2	98	7a	b0	0d	04	34	dc	39	62	96	f1	c7	44	a2	66	b1	5d	fc	33	22	a6	ad	57	c2	a8	6a	0a	e0	82	c5	54	5b	47	ff	0e	3e	82	97	66	91	6a	a6	4b	dc	75	14	82	f6	11	10	5e	ae	13	45	c8	72	aa	7a	1b	4c	53	10	2c	56	d8	87	c2	83	bb	d5	57	4a	fc	0f	f4	2e	a1	3b	81	23	9d	d8	5c	3b	ce	60	86	18	46	94	c6	aa	bd	6b	bd	24	be	d3	09	45	d8	3a	40	ed	d7	e1	85	94	0f	e0	23	20	6c	0a	f7	92	ea	7b	70	b5	a2	36	d3	83	88	d5	03	cf	db	22	e2	56	93	d8	ff	7b	e8	60	ec	95	81	28	f7	22	d9	c9	7a	df	8e	19	1d	81	b8	cc	dd	17	e5	60	d3	62	d6	69	8f	77	01	e0	16	e2	19	d5	34	0c	47	13	cb	54	bb	8d	48	64	28	48	92	04	ce	cd	c8	a5	a3	5e	63	0b	fc	ad	d0	70	a8	e1	12	03	6e	15	e4	ca	89	9c	21	78	95	9d	f6	e9	ea	8c	29	fa	90	b0	d9	92	c0	b2	f0	1f	6a	7c	d5	25	e9	77	8b	d1	4c	07	59	26	40	1d	81	1b	b3	0f	33	f8	fd	21	e8	91	bf	2d	a3	8a	f2	a1	dd	99	6e	1d	df	7c	21	13	e3	db	3c	a4	44	bf	83	65	9a	fe	65	e9	68	41	69	ef	94	53	0e	f4	11	90	f6	86	e2	b3	c6	5f	b4	33	b3	ab	aa	70	2d	fd	3e	9c	1c	e7	b7	ce	37	0e	11	8e	9f	6d	be	9f	66	b9	19	73	07	11	9d	7f	78	dd	05	b5	b1	10	8e	a3	b3	7a	9c	ec	7f	4a	b7	98	3a	c2	06	78	bd	3d	
7e	67	99	a3	db	7b	11	aa	ed	99	3f	fe	d6	cd	ba	ea	90	06	b8	54	59	46	57	03	75	ea	e5	5d	ae	d5	5b	42	38	51	0a	97	35	49	d9	2b	9e	9f	1f	07	a4	f5	b2	de	ac	df	a4	59	79	11	47	72	26	f7	f4	8b	ae	cf	f2	d9	7f	73	24	67	ee	6d	ce	d6	24	58	07	1a	6b	a1	f8	80	07	00	8c	6c	1f	a5	7d	6b	d3	02	b1	8f	8a	7d	06	68	5b	03	a8	56	85	f6	b5	c6	0f	68	c3	bc	ae	70	db	e9	fb	7d	e5	2f	3b	90	e3	ba	93	d0	c5	2b	1f	51	f6	25	44	e9	8b	1d	90	bb	78	2d	ac	dc	9b	ee	20	c5	ff	69	52	f0	e9	07	41	50	0d	4e	40	22	39	2c	f5	b0	10	89	df	ad	05	fb	0f	a6	a1	c1	ab	b2	98	7a	b0	0d	04	34	dc	39	62	96	f1	c7	44	a2	66	b1	5d	fc	33	22	a6	ad	57	c2	a8	6a	0a	e0	82	c5	54	5b	47	ff	0e	3e	82	97	66	91	6a	a6	4b	dc	75	14	82	f6	11	10	5e	ae	13	45	c8	72	aa	7a	1b	4c	53	10	2c	56	d8	87	c2	83	bb	d5	57	4a	fc	0f	f4	2e	a1	3b	81	23	9d	d8	5c	3b	ce	60	86	18	46	94	c6	aa	bd	6b	bd	24	be	d3	09	45	d8	3a	40	ed	d7	e1	85	94	0f	e0	23	20	6c	0a	f7	92	ea	7b	70	b5	a2	36	d3	83	88	d5	03	cf	db	22	e2	56	93	d8	ff	7b	e8	60	ec	95	81	28	f7	22	d9	c9	7a	df	8e	19	1d	81	b8	cc	dd	17	e5	60	d3	62	d6	69	8f	77	01	e0	16	e2	19	d5	34	0c	47	13	cb	54	bb	8d	48	64	28	48	92	04	ce	cd	c8	a5	a3	5e	63	0b	fc	ad	d0	70	a8	e1	12	03	6e	15	e4	ca	89	9c	21	78	95	9d	f6	e9	ea	8c	29	fa	90	b0	d9	92	c0	b2	f0	1f	6a	7c	d5	25	e9	77	8b	d1	4c	07	59	26	40	1d	81	1b	b3	0f	33	f8	fd	21	e8	91	bf	2d	a3	8a	f2	a1	dd	99	6e	1d	df	7c	21	13	e3	db	3c	a4	44	bf	83	65	9a	fe	65	e9	68	41	69	ef	94	53	0e	f4	11	90	f6	86	e2	b3	c6	5f	b4	33	b3	ab	aa	70	2d	fd	3e	9c	1c	e7	b7	ce	37	0e	11	8e	9f	6d	be	9f	66	b9	19	73	07	11	9d	7f	78	dd	05	b5	b1	10	8e	a3	b3	7a	9c	ec	7f	4a	b7	98	3a	c2	06	78	bd	3d	
7e	67	99	a3	db	7b	11	aa	ed	99	3f	fe	d6	cd	ba	ea	90	06	b8	54	59	46	57	03	75	ea	e5	5d	ae	d5	5b	42	38	51	0a	97	35	49	d9	2b	9e	9f	1f	07	a4	f5	b2	de	ac	df	a4	59	79	11	47	72	26	f7	f4	8b	ae	cf	f2	d9	7f	73	24	67	ee	6d	ce	d6	24	58	07	1a	6b	a1	f8	80	07	00	8c	6c	1f	a5	7d	6b	d3	02	b1	8f	8a	7d	06	68	5b	03	a8	56	85	f6	b5	c6	0f	68	c3	bc	ae	70	db	e9	fb	7d	e5	2f	3b	90	e3	ba	93	d0	c5	2b	1f	51	f6	25	44	e9	8b	1d	90	bb	78	2d	ac	dc	9b	ee	20	c5	ff	69	52	f0	e9	07	41	50	0d	4e	40	22	39	2c	f5	b0	10	89	df	ad	05	fb	0f	a6	a1	c1	ab	b2	98	7a	b0	0d	04	34	dc	39	62	96	f1	c7	44	a2	66	b1	5d	fc	33	22	a6	ad	57	c2	a8	6a	0a	e0	82	c5	54	5b	47	ff	0e	3e	82	97	66	91	6a	a6	4b	dc	75	14	82	f6	11	10	5e	ae	13	45	c8	72	aa	7a	1b	4c	53	10	2c	56	d8	87	c2	83	bb	d5	57	4a	fc	0f	f4	2e	a1	3b	81	23	9d	d8	5c	3b	ce	60	86	18	46	94	c6	aa	bd	6b	bd	24	be	d3	09	45	d8	3a	40	ed	d7	e1	85	94	0f	e0	23	20	6c	0a	f7	92	ea	7b	70	b5	a2	36	d3	83	88	d5	03	cf	db	22	e2	56	93	d8	ff	7b	e8	60	ec	95	81	28	f7	22	d9	c9	7a	df	8e	19	1d	81	b8	cc	dd	17	e5	60	d3	62	d6	69	8f	77	01	e0	16	e2	19	d5	34	0c	47	13	cb	54	bb	8d	48	64	28	48	92	04	ce	cd	c8	a5	a3	5e	63	0b	fc	ad	d0	70	a8	e1	12	03	6e	15	e4	ca	89	9c	21	78	95	9d	f6	e9	ea	8c	29	fa	90	b0	d9	92	c0	b2	f0	1f	6a	7c	d5	25	e9	77	8b	d1	4c	07	59	26	40	1d	81	1b	b3	0f	33	f8	fd	21	e8	91	bf	2d	a3	8a	f2	a1	dd	99	6e	1d	df	7c	21	13	e3	db	3c	a4	44	bf	83	65	9a	fe	65	e9	68	41	69	ef	94	53	0e	f4	11	90	f6	86	e2	b3	c6	5f	b4	33	b3	ab	aa	70	2d	fd	3e	9c	1c	e7	b7	ce	37	0e	11	8e	9f	6d	be	9f	66	b9	19	73	07	11	9d	7f	78	dd	05	b5	b1	10	8e	a3	b3	7a	9c	ec	7f	4a	b7	98	3a	c2	06	78	bd	3d	
7e	67	99	a3	db	7b	11	aa	ed	99	3f	fe	d6	cd	ba	ea	90	06	b8	54	59	46	57	03	75	ea	e5	5d	ae	d5	5b	42	38	51	0a	97	35	49	d9	2b	9e	9f	1f	07	a4	f5	b2	de	ac	df	a4	59	79	11	47	72	26	f7	f4	8b	ae	cf	f2	d9	7f	73	24	67	ee	6d	ce	d6	24	58	07	1a	6b	a1	f8	80	07	00	8c	6c	1f	a5	7d	6b	d3	02	b1	8f	8a	7d	06	68	5b	03	a8	56	85	f6	b5	c6	0f	68	c3	bc	ae	70	db	e9	fb	7d	e5	2f	3b	90	e3	ba	93	d0	c5	2b	1f	51	f6	25	44	e9	8b	1d	90	bb	78	2d	ac	dc	9b	ee	20	c5	ff	69	52	f0	e9	07	41	50	0d	4e	40	22	39	2c	f5	b0	10	89	df	ad	05	fb	0f	a6	a1	c1	ab	b2	98	7a	b0	0d	04	34	dc	39	62	96	f1	c7	44	a2	66	b1	5d	fc	33	22	a6	ad	57	c2	a8	6a	0a	e0	82	c5	54	5b	47	ff	0e	3e	82	97	66	91	6a	a6	4b	dc	75	14	82	f6	11	10	5e	ae	13	45	c8	72	aa	7a	1b	4c	53	10	2c	56	d8	87	c2	83	bb	d5	57	4a	fc	0f	f4	2e	a1	3b	81	23	9d	d8	5c	3b	ce	60	86	18	46	94	c6	aa	bd	6b	bd	24	be	d3	09	45	d8	3a	40	ed	d7	e1	85	94	0f	e0	23	20	6c	0a	f7	92	ea	7b	70	b5	a2	36	d3	83	88	d5	03	cf	db	22	e2	56	93	d8	ff	7b	e8	60	ec	95	81	28	f7	22	d9	c9	7a	df	8e	19	1d	81	b8	cc	dd	17	e5	60	d3	62	d6	69	8f	77	01	e0	16	e2	19	d5	34	0c	47	13	cb	54	bb	8d	48	64	28	48	92	04	ce	cd	c8	a5	a3	5e	63	0b	fc	ad	d0	70	a8	e1	12	03	6e	15	e4	ca	89	9c	21	78	95	9d	f6	e9	ea	8c	29	fa	90	b0	d9	92	c0	b2	f0	1f	6a	7c	d5	25	e9	77	8b	d1	4c	07	59	26	40	1d	81	1b	b3	0f	33	f8	fd	21	e8	91	bf	2d	a3	8a	f2	a1	dd	99	6e	1d	df	7c	21	13	e3	db	3c	a4	44	bf	83	65	9a	fe	65	e9	68	41	69	ef	94	53	0e	f4	11	90	f6	86	e2	b3	c6	5f	b4	33	b3	ab	aa	70	2d	fd	3e	9c	1c	e7	b7	ce	37	0e	11	8e	9f	6d	be	9f	66	b9	19	73	07	11	9d	7f	78	dd	05	b5	b1	10	8e	a3	b3	7a	9c	ec	7f	4a	b7	98	3a	c2	06	78	bd	3d	
7e	67	99	a3	db	7b	11	aa	ed	99	3f	fe	d6	cd	ba	ea	90	06	b8	54	59	46	57	03	75	ea	e5	5d	ae	d5	5b	42	38	51	0a	97	35	49	d9	2b	9e	9f	1f	07	a4	f5	b2	de	ac	df	a4	59	79	11	47	72	26	f7	f4	8b	ae	cf	f2	d9	7f	73	24	67	ee	6d	ce	d6	24	58	07	1a	6b	a1	f8	80	07	00	8c	6c	1f	a5	7d	6b	d3	02	b1	8f	8a	7d	06	68	5b	03	a8	56	85	f6	b5	c6	0f	68	c3	bc	ae	70	db	e9	fb	7d	e5	2f	3b	90	e3	ba	93	d0	c5	2b	1f	51	f6	25	44	e9	8b	1d	90	bb	78	2d	ac	dc	9b	ee	20	c5	ff	69	52	f0	e9	07	41	50	0d	4e	40	22	39	2c	f5	b0	10	89	df	ad	05	fb	0f	a6	a1	c1	ab	b2	98	7a	b0	0d	04	34	dc	39	62	96	f1	c7	44	a2	66	b1	5d	fc	33	22	a6	ad	57	c2	a8	6a	0a	e0	82	c5	54	5b	47	ff	0e	3e	82	97	66	91	6a	a6	4b	dc	75	14	82	f6	11	10	5e	ae	13	45	c8	72	aa	7a	1b	4c	53	10	2c	56	d8	87	c2	83	bb	d5	57	4a	fc	0f	f4	2e	a1	3b	81	23	9d	d8	5c	3b	ce	60	86	18	46	94	c6	aa	bd	6b	bd	24	be	d3	09	45	d8	3a	40	ed	d7	e1	85	94	0f	e0	23	20	6c	0a	f7	92	ea	7b	70	b5	a2	36	d3	83	88	d5	03	cf	db	22	e2	56	93	d8	ff	7b	e8	60	ec	95	81	28	f7	22	d9	c9	7a	df	8e	19	1d	81	b8	cc	dd	17	e5	60	d3	62	d6	69	8f	77	01	e0	16	e2	19	d5	34	0c	47	13	cb	54	bb	8d	48	64	28	48	92	04	ce	cd	c8	a5	a3	5e	63	0b	fc	ad	d0	70	a8	e1	12	03	6e	15	e4	ca	89	9c	21	78	95	9d	f6	e9	ea	8c	29	fa	90	b0	d9	92	c0	b2	f0	1f	6a	7c	d5	25	e9	77	8b	d1	4c	07	59	26	40	1d	81	1b	b3	0f	33	f8	fd	21	e8	91	bf	2d	a3	8a	f2	a1	dd	99	6e	1d	df	7c	21	13	e3	db	3c	a4	44	bf	83	65	9a	fe	65	e9	68	41	69	ef	94	53	0e	f4	11	90	f6	86	e2	b3	c6	5f	b4	33	b3	ab	aa	70	2d	fd	3e	9c	1c	e7	b7	ce	37	0e	11	8e	9f	6d	be	9f	66	b9	19	73	07	11	9d	7f	78	dd	05	b5	b1	10	8e	a3	b3	7a	9c	ec	7f	4a	b7	98	3a	c2	06	78	bd	3d	
7e	67	99	a3	db	7b	11	aa	ed	99	3f	fe	d6	cd	ba	ea	90	06	b8	54	59	46	57	03	75	ea	e5	5d	ae	d5	5b	42	38	51	0a	97	35	49	d9	2b	9e	9f	1f	07	a4	f5	b2	de	ac	df	a4	59	79	11	47	72	26	f7	f4	8b	ae	cf	f2	d9	7f	73	24	67	ee	6d	ce	d6	24	58	07	1a	6b	a1	f8	80	07	00	8c	6c	1f	a5	7d	6b	d3	02	b1	8f	8a	7d	06	68	5b	03	a8	56	85	f6	b5	c6	0f	68	c3	bc	ae	70	db	e9	fb	7d	e5	2f	3b	90	e3	ba	93	d0	c5	2b	1f	51	f6	25	44	e9	8b	1d	90	bb	78	2d	ac	dc	9b	ee	20	c5	ff	69	52	f0	e9	07	41	50	0d	4e	40	22	39	2c	f5	b0	10	89	df	ad	05	fb	0f	a6	a1	c1	ab	b2	98	7a	b0	0d	04	34	dc	39	62	96	f1	c7	44	a2	66	b1	5d	fc	33	22	a6	ad	57	c2	a8	6a	0a	e0	82	c5	54	5b	47	ff	0e	3e	82	97	66	91	6a	a6	4b	dc	75	14	82	f6	11	10	5e	ae	13	45	c8	72	aa	7a	1b	4c	53	10	2c	56	d8	87	c2	83	bb	d5	57	4a	fc	0f	f4	2e	a1	3b	81	23	9d	d8	5c	3b	ce	60	86	18	46	94	c6	aa	bd	6b	bd	24	be	d3	09	45	d8	3a	40	ed	d7	e1	85	94	0f	e0	23	20	6c	0a	f7	92	ea	7b	70	b5	a2	36	d3	83	88	d5	03	cf	db	22	e2	56	93	d8	ff	7b	e8	60	ec	95	81	28	f7	22	d9	c9	7a	df	8e	19	1d	81	b8	cc	dd	17	e5	60	d3	62	d6	69	8f	77	01	e0	16	e2	19	d5	34	0c	47	13	cb	54	bb	8d	48	64	28	48	92	04	ce	cd	c8	a5	a3	5e	63	0b	fc	ad	d0	70	a8	e1	12	03	6e	15	e4	ca	89	9c	21	78	95	9d	f6	e9	ea	8c	29	fa	90	b0	d9	92	c0	b2	f0	1f	6a	7c	d5	25	e9	77	8b	d1	4c	07	59	26	40	1d	81	1b	b3	0f	33	f8	fd	21	e8	91	bf	2d	a3	8a	f2	a1	dd	99	6e	1d	df	7c	21	13	e3	db	3c	a4	44	bf	83	65	9a	fe	65	e9	68	41	69	ef	94	53	0e	f4	11	90	f6	86	e2	b3	c6	5f	b4	33	b3	ab	aa	70	2d	fd	3e	9c	1c	e7	b7	ce	37	0e	11	8e	9f	6d	be	9f	66	b9	19	73	07	11	9d	7f	78	dd	05	b5	b1	10	8e	a3	b3	7a	9c	ec	7f	4a	b7	98	3a	c2	06	78	bd	3d	
7e	67	99	a3	db	7b	11	aa	ed	99	3f	fe	d6	cd	ba	ea	90	06	b8	54	59	46	57	03	75	ea	e5	5d	ae	d5	5b	42	38	51	0a	97	35	49	d9	2b	9e	9f	1f	07	a4	f5	b2	de	ac	df	a4	59	79	11	47	72	26	f7	f4	8b	ae	cf	f2	d9	7f	73	24	67	ee	6d	ce	d6	24	58	07	1a	6b	a1	f8	80	07	00	8c	6c	1f	a5	7d	6b	d3	02	b1	8f	8a	7d	06	68	5b	03	a8	56	85	f6	b5	c6	0f	68	c3	bc	ae	70	db	e9	fb	7d	e5	2f	3b	90	e3	ba	93	d0	c5	2b	1f	51	f6	25	44	e9	8b	1d	90	bb	78	2d	ac	dc	9b	ee	20	c5	ff	69	52	f0	e9	07	41	50	0d	4e	40	22	39	2c	f5	b0	10	89	df	ad	05	fb	0f	a6	a1	c1	ab	b2	98	7a	b0	0d	04	34	dc	39	62	96	f1	c7	44	a2	66	b1	5d	fc	33	22	a6	ad	57	c2	a8	6a	0a	e0	82	c5	54	5b	47	ff	0e	3e	82	97	66	91	6a	a6	4b	dc	75	14	82	f6	11	10	5e	ae	13	45	c8	72	aa	7a	1b	4c	53	10	2c	56	d8	87	c2	83	bb	d5	57	4a	fc	0f	f4	2e	a1	3b	81	23	9d	d8	5c	3b	ce	60	86	18	46	94	c6	aa	bd	6b	bd	24	be	d3	09	45	d8	3a	40	ed	d7	e1	85	94	0f	e0	23	20	6c	0a	f7	92	ea	7b	70	b5	a2	36	d3	83	88	d5	03	cf	db	22	e2	56	93	d8	ff	7b	e8	60	ec	95	81	28	f7	22	d9	c9	7a	df	8e	19	1d	81	b8	cc	dd	17	e5	60	d3	62	d6	69	8f	77	01	e0	16	e2	19	d5	34	0c	47	13	cb	54	bb	8d	48	64	28	48	92	04	ce	cd	c8	a5	a3	5e	63	0b	fc	ad	d0	70	a8	e1	12	03	6e	15	e4	ca	89	9c	21	78	95	9d	f6	e9	ea	8c	29	fa	90	b0	d9	92	c0	b2	f0	1f	6a	7c	d5	25	e9	77	8b	d1	4c	07	59	26	40	1d	81	1b	b3	0f	33	f8	fd	21	e8	91	bf	2d	a3	8a	f2	a1	dd	99	6e	1d	df	7c	21	13	e3	db	3c	a4	44	bf	83	65	9a	fe	65	e9	68	41	69	ef	94	53	0e	f4	11	90	f6	86	e2	b3	c6	5f	b4	33	b3	ab	aa	70	2d	fd	3e	9c	1c	e7	b7	ce	37	0e	11	8e	9f	6d	be	9f	66	b9	19	73	07	11	9d	7f	78	dd	05	b5	b1	10	8e	a3	b3	7a	9c	ec	7f	4a	b7	98	3a	c2	06	78	bd	3d	
7e	67	99	a3	db	7b	11	aa	ed	99	3f	fe	d6	cd	ba	ea	90	06	b8	54	59	46	57	03	75	ea	e5	5d	ae	d5	5b	42	38	51	0a	97	35	49	d9	2b	9e	9f	1f	07	a4	f5	b2	de	ac	df	a4	59	79	11	47	72	26	f7	f4	8b	ae	cf	f2	d9	7f	73	24	67	ee	6d	ce	d6	24	58	07	1a	6b	a1	f8	80	07	00	8c	6c	1f	a5	7d	6b	d3	02	b1	8f	8a	7d	06	68	5b	03	a8	56	85	f6	b5	c6	0f	68	c3	bc	ae	70	db	e9	fb	7d	e5	2f	3b	90	e3	ba	93	d0	c5	2b	1f	51	f6	25	44	e9	8b	1d	90	bb	78	2d	ac	dc	9b	ee	20	c5	ff	69	52	f0	e9	07	41	50	0d	4e	40	22	39	2c	f5	b0	10	89	df	ad	05	fb	0f	a6	a1	c1	ab	b2	98	7a	b0	0d	04	34	dc	39	62	96	f1	c7	44	a2	66	b1	5d	fc	33	22	a6	ad	57	c2	a8	6a	0a	e0	82	c5	54	5b	47	ff	0e	3e	82	97	66	91	6a	a6	4b	dc	75	14	82	f6	11	10	5e	ae	13	45	c8	72	aa	7a	1b	4c	53	10	2c	56	d8	87	c2	83	bb	d5	57	4a	fc	0f	f4	2e	a1	3b	81	23	9d	d8	5c	3b	ce	60	86	18	46	94	c6	aa	bd	6b	bd	24	be	d3	09	45	d8	3a	40	ed	d7	e1	85	94	0f	e0	23	20	6c	0a	f7	92	ea	7b	70	b5	a2	36	d3	83	88	d5	03	cf	db	22	e2	56	93	d8	ff	7b	e8	60	ec	95	81	28	f7	22	d9	c9	7a	df	8e	19	1d	81	b8	cc	dd	17	e5	60	d3	62	d6	69	8f	77	01	e0	16	e2	19	d5	34	0c	47	13	cb	54	bb	8d	48	64	28	48	92	04	ce	cd	c8	a5	a3	5e	63	0b	fc	ad	d0	70	a8	e1	12	03	6e	15	e4	ca	89	9c	21	78	95	9d	f6	e9	ea	8c	29	fa	90	b0	d9	92	c0	b2	f0	1f	6a	7c	d5	25	e9	77	8b	d1	4c	07	59	26	40	1d	81	1b	b3	0f	33	f8	fd	21	e8	91	bf	2d	a3	8a	f2	a1	dd	99	6e	1d	df	7c	21	13	e3	db	3c	a4	44	bf	83	65	9a	fe	65	e9	68	41	69	ef	94	53	0e	f4	11	90	f6	86	e2	b3	c6	5f	b4	33	b3	ab	aa	70	2d	fd	3e	9c	1c	e7	b7	ce	37	0e	11	8e	9f	6d	be	9f	66	b9	19	73	07	11	9d	7f	78	dd	05	b5	b1	10	8e	a3	b3	7a	9c	ec	7f	4a	b7	98	3a	c2	06	78	bd	3d	
7e	67	99	a3	db	7b	11	aa	ed	99	3f	fe	d6	cd	ba	ea	90	06	b8	54	59	46	57	03	75	ea	e5	5d	ae	d5	5b	42	38	51	0a	97	35	49	d9	2b	9e	9f	1f	07	a4	f5	b2	de	ac	df	a4	59	79	11	47	72	26	f7	f4	8b	ae	cf	f2	d9	7f	73	24	67	ee	6d	ce	d6	24	58	07	1a	6b	a1	f8	80	07	00	8c	6c	1f	a5	7d	6b	d3	02	b1	8f	8a	7d	06	68	5b	03	a8	56	85	f6	b5	c6	0f	68	c3	bc	ae	70	db	e9	fb	7d	e5	2f	3b	90	e3	ba	93	d0	c5	2b	1f	51	f6	25	44	e9	8b	1d	90	bb	78	2d	ac	dc	9b	ee	20	c5	ff	69	52	f0	e9	07	41	50	0d	4e	40	22	39	2c	f5	b0	10	89	df	ad	05	fb	0f	a6	a1	c1	ab	b2	98	7a	b0	0d	04	34	dc	39	62	96	f1	c7	44	a2	66	b1	5d	fc	33	22	a6	ad	57	c2	a8	6a	0a	e0	82	c5	54	5b	47	ff	0e	3e	82	97	66	91	6a	a6	4b	dc	75	14	82	f6	11	10	5e	ae	13	45	c8	72	aa	7a	1b	4c	53	10	2c	56	d8	87	c2	83	bb	d5	57	4a	fc	0f	f4	2e	a1	3b	81	23	9d	d8	5c	3b	ce	60	86	18	46	94	c6	aa	bd	6b	bd	24	be	d3	09	45	d8	3a	40	ed	d7	e1	85	94	0f	e0	23	20	6c	0a	f7	92	ea	7b	70	b5	a2	36	d3	83	88	d5	03	cf	db	22	e2	56	93	d8	ff	7b	e8	60	ec	95	81	28	f7	22	d9	c9	7a	df	8e	19	1d	81	b8	cc	dd	17	e5	60	d3	62	d6	69	8f	77	01	e0	16	e2	19	d5	34	0c	47	13	cb	54	bb	8d	48	64	28	48	92	04	ce	cd	c8	a5	a3	5e	63	0b	fc	ad	d0	70	a8	e1	12	03	6e	15	e4	ca	89	9c	21	78	95	9d	f6	e9	ea	8c	29	fa	90	b0	d9	92	c0	b2	f0	1f	6a	7c	d5	25	e9	77	8b	d1	4c	07	59	26	40	1d	81	1b	b3	0f	33	f8	fd	21	e8	91	bf	2d	a3	8a	f2	a1	dd	99	6e	1d	df	7c	21	13	e3	db	3c	a4	44	bf	83	65	9a	fe	65	e9	68	41	69	ef	94	53	0e	f4	11	90	f6	86	e2	b3	c6	5f	b4	33	b3	ab	aa	70	2d	fd	3e	9c	1c	e7	b7	ce	37	0e	11	8e	9f	6d	be	9f	66	b9	19	73	07	11	9d	7f	78	dd	05	b5	b1	10	8e	a3	b3	7a	9c	ec	7f	4a	b7	98	3a	c2	06	78	bd	3d	
7e	67	99	a3	db	7b	11	aa	ed	99	3f	fe	d6	cd	ba	ea	90	06	b8	54	59	46	57	03	75	ea	e5	5d	ae	d5	5b	42	38	51	0a	97	35	49	d9	2b	9e	9f	1f	07	a4	f5	b2	de	ac	df	a4	59	79	11	47	72	26	f7	f4	8b	ae	cf	f2	d9	7f	73	24	67	ee	6d	ce	d6	24	58	07	1a	6b	a1	f8	80	07	00	8c	6c	1f	a5	7d	6b	d3	02	b1	8f	8a	7d	06	68	5b	03	a8	56	85	f6	b5	c6	0f	68	c3	bc	ae	70	db	e9	fb	7d	e5	2f	3b	90	e3	ba	93	d0	c5	2b	1f	51	f6	25	44	e9	8b	1d	90	bb	78	2d	ac	dc	9b	ee	20	c5	ff	69	52	f0	e9	07	41	50	0d	4e	40	22	39	2c	f5	b0	10	89	df	ad	05	fb	0f	a6	a1	c1	ab	b2	98	7a	b0	0d	04	34	dc	39	62	96	f1	c7	44	a2	66	b1	5d	fc	33	22	a6	ad	57	c2	a8	6a	0a	e0	82	c5	54	5b	47	ff	0e	3e	82	97	66	91	6a	a6	4b	dc	75	14	82	f6	11	10	5e	ae	13	45	c8	72	aa	7a	1b	4c	53	10	2c	56	d8	87	c2	83	bb	d5	57	4a	fc	0f	f4	2e	a1	3b	81	23	9d	d8	5c	3b	ce	60	86	18	46	94	c6	aa	bd	6b	bd	24	be	d3	09	45	d8	3a	40	ed	d7	e1	85	94	0f	e0	23	20	6c	0a	f7	92	ea	7b	70	b5	a2	36	d3	83	88	d5	03	cf	db	22	e2	56	93	d8	ff	7b	e8	60	ec	95	81	28	f7	22	d9	c9	7a	df	8e	19	1d	81	b8	cc	dd	17	e5	60	d3	62	d6	69	8f	77	01	e0	16	e2	19	d5	34	0c	47	13	cb	54	bb	8d	48	64	28	48	92	04	ce	cd	c8	a5	a3	5e	63	0b	fc	ad	d0	70	a8	e1	12	03	6e	15	e4	ca	89	9c	21	78	95	9d	f6	e9	ea	8c	29	fa	90	b0	d9	92	c0	b2	f0	1f	6a	7c	d5	25	e9	77	8b	d1	4c	07	59	26	40	1d	81	1b	b3	0f	33	f8	fd	21	e8	91	bf	2d	a3	8a	f2	a1	dd	99	6e	1d	df	7c	21	13	e3	db	3c	a4	44	bf	83	65	9a	fe	65	e9	68	41	69	ef	94	53	0e	f4	11	90	f6	86	e2	b3	c6	5f	b4	33	b3	ab	aa	70	2d	fd	3e	9c	1c	e7	b7	ce	37	0e	11	8e	9f	6d	be	9f	66	b9	19	73	07	11	9d	7f	78	dd	05	b5	b1	10	8e	a3	b3	7a	9c	ec	7f	4a	b7	98	3a	c2	06	78	bd	3d	
7e	67	99	a3	db	7b	11	aa	ed	99	3f	fe	d6	cd	ba	ea	90	06	b8	54	59	46	57	03	75	ea	e5	5d	ae	d5	5b	42	38	51	0a	97	35	49	d9	2b	9e	9f	1f	07	a4	f5	b2	de	ac	df	a4	59	79	11	47	72	26	f7	f4	8b	ae	cf	f2	d9	7f	73	24	67	ee	6d	ce	d6	24	58	07	1a	6b	a1	f8	80	07	00	8c	6c	1f	a5	7d	6b	d3	02	b1	8f	8a	7d	06	68	5b	03	a8	56	85	f6	b5	c6	0f	68	c3	bc	ae	70	db	e9	fb	7d	e5	2f	3b	90	e3	ba	93	d0	c5	2b	1f	51	f6	25	44	e9	8b	1d	90	bb	78	2d	ac	dc	9b	ee	20	c5	ff	69	52	f0	e9	07	41	50	0d	4e	40	22	39	2c	f5	b0	10	89	df	ad	05	fb	0f	a6	a1	c1	ab	b2	98	7a	b0	0d	04	34	dc	39	62	96	f1	c7	44	a2	66	b1	5d	fc	33	22	a6	ad	57	c2	a8	6a	0a	e0	82	c5	54	5b	47	ff	0e	3e	82	97	66	91	6a	a6	4b	dc	75	14	82	f6	11	10	5e	ae	13	45	c8	72	aa	7a	1b	4c	53	10	2c	56	d8	87	c2	83	bb	d5	57	4a	fc	0f	f4	2e	a1	3b	81	23	9d	d8	5c	3b	ce	60	86	18	46	94	c6	aa	bd	6b	bd	24	be	d3	09	45	d8	3a	40	ed	d7	e1	85	94	0f	e0	23	20	6c	0a	f7	92	ea	7b	70	b5	a2	36	d3	83	88	d5	03	cf	db	22	e2	56	93	d8	ff	7b	e8	60	ec	95	81	28	f7	22	d9	c9	7a	df	8e	19	1d	81	b8	cc	dd	17	e5	60	d3	62	d6	69	8f	77	01	e0	16	e2	19	d5	34	0c	47	13	cb	54	bb	8d	48	64	28	48	92	04	ce	cd	c8	a5	a3	5e	63	0b	fc	ad	d0	70	a8	e1	12	03	6e	15	e4	ca	89	9c	21	78	95	9d	f6	e9	ea	8c	29	fa	90	b0	d9	92	c0	b2	f0	1f	6a	7c	d5	25	e9	77	8b	d1	4c	07	59	26	40	1d	81	1b	b3	0f	33	f8	fd	21	e8	91	bf	2d	a3	8a	f2	a1	dd	99	6e	1d	df	7c	21	13	e3	db	3c	a4	44	bf	83	65	9a	fe	65	e9	68	41	69	ef	94	53	0e	f4	11	90	f6	86	e2	b3	c6	5f	b4	33	b3	ab	aa	70	2d	fd	3e	9c	1c	e7	b7	ce	37	0e	11	8e	9f	6d	be	9f	66	b9	19	73	07	11	9d	7f	78	dd	05	b5	b1	10	8e	a3	b3	7a	9c	ec	7f	4a	b7	98	3a	c2	06	78	bd	3d	
7e	67	99	a3	db	7b	11	aa	ed	99	3f	fe	d6	cd	ba	ea	90	06	b8	54	59	46	57	03	75	ea	e5	5d	ae	d5	5b	42	38	51	0a	97	35	49	d9	2b	9e	9f	1f	07	a4	f5	b2	de	ac	df	a4	59	79	11	47	72	26	f7	f4	8b	ae	cf	f2	d9	7f	73	24	67	ee	6d	ce	d6	24	58	07	1a	6b	a1	f8	80	07	00	8c	6c	1f	a5	7d	6b	d3	02	b1	8f	8a	7d	06	68	5b	03	a8	56	85	f6	b5	c6	0f	68	c3	bc	ae	70	db	e9	fb	7d	e5	2f	3b	90	e3	ba	93	d0	c5	2b	1f	51	f6	25	44	e9	8b	1d	90	bb	78	2d	ac	dc	9b	ee	20	c5	ff	69	52	f0	e9	07	41	50	0d	4e	40	22	39	2c	f5	b0	10	89	df	ad	05	fb	0f	a6	a1	c1	ab	b2	98	7a	b0	0d	04	34	dc	39	62	96	f1	c7	44	a2	66	b1	5d	fc	33	22	a6	ad	57	c2	a8	6a	0a	e0	82	c5	54	5b	47	ff	0e	3e	82	97	66	91	6a	a6	4b	dc	75	14	82	f6	11	10	5e	ae	13	45	c8	72	aa	7a	1b	4c	53	10	2c	56	d8	87	c2	83	bb	d5	57	4a	fc	0f	f4	2e	a1	3b	81	23	9d	d8	5c	3b	ce	60	86	18	46	94	c6	aa	bd	6b	bd	24	be	d3	09	45	d8	3a	40	ed	d7	e1	85	94	0f	e0	23	20	6c	0a	f7	92	ea	7b	70	b5	a2	36	d3	83	88	d5	03	cf	db	22	e2	56	93	d8	ff	7b	e8	60	ec	95	81	28	f7	22	d9	c9	7a	df	8e	19	1d	81	b8	cc	dd	17	e5	60	d3	62	d6	69	8f	77	01	e0	16	e2	19	d5	34	0c	47	13	cb	54	bb	8d	48	64	28	48	92	04	ce	cd	c8	a5	a3	5e	63	0b	fc	ad	d0	70	a8	e1	12	03	6e	15	e4	ca	89	9c	21	78	95	9d	f6	e9	ea	8c	29	fa	90	b0	d9	92	c0	b2	f0	1f	6a	7c	d5	25	e9	77	8b	d1	4c	07	59	26	40	1d	81	1b	b3	0f	33	f8	fd	21	e8	91	bf	2d	a3	8a	f2	a1	dd	99	6e	1d	df	7c	21	13	e3	db	3c	a4	44	bf	83	65	9a	fe	65	e9	68	41	69	ef	94	53	0e	f4	11	90	f6	86	e2	b3	c6	5f	b4	33	b3	ab	aa	70	2d	fd	3e	9c	1c	e7	b7	ce	37	0e	11	8e	9f	6d	be	9f	66	b9	19	73	07	11	9d	7f	78	dd	05	b5	b1	10	8e	a3	b3	7a	9c	ec	7f	4a	b7	98	3a	c2	06	78	bd	3d	
7e	67	99	a3	db	7b	11	aa	ed	99	3f	fe	d6	cd	ba	ea	90	06	b8	54	59	46	57	03	75	ea	e5	5d	ae	d5	5b	42	38	51	0a	97	35	49	d9	2b	9e	9f	1f	07	a4	f5	b2	de	ac	df	a4	59	79	11	47	72	26	f7	f4	8b	ae	cf	f2	d9	7f	73	24	67	ee	6d	ce	d6	24	58	07	1a	6b	a1	f8	80	07	00	8c	6c	1f	a5	7d	6b	d3	02	b1	8f	8a	7d	06	68	5b	03	a8	56	85	f6	b5	c6	0f	68	c3	bc	ae	70	db	e9	fb	7d	e5	2f	3b	90	e3	ba	93	d0	c5	2b	1f	51	f6	25	44	e9	8b	1d	90	bb	78	2d	ac	dc	9b	ee	20	c5	ff	69	52	f0	e9	07	41	50	0d	4e	40	22	39	2c	f5	b0	10	89	df	ad	05	fb	0f	a6	a1	c1	ab	b2	98	7a	b0	0d	04	34	dc	39	62	96	f1	c7	44	a2	66	b1	5d	fc	33	22	a6	ad	57	c2	a8	6a	0a	e0	82	c5	54	5b	47	ff	0e	3e	82	97	66	91	6a	a6	4b	dc	75	14	82	f6	11	10	5e	ae	13	45	c8	72	aa	7a	1b	4c	53	10	2c	56	d8	87	c2	83	bb	d5	57	4a	fc	0f	f4	2e	a1	3b	81	23	9d	d8	5c	3b	ce	60	86	18	46	94	c6	aa	bd	6b	bd	24	be	d3	09	45	d8	3a	40	ed	d7	e1	85	94	0f	e0	23	20	6c	0a	f7	92	ea	7b	70	b5	a2	36	d3	83	88	d5	03	cf	db	22	e2	56	93	d8	ff	7b	e8	60	ec	95	81	28	f7	22	d9	c9	7a	df	8e	19	1d	81	b8	cc	dd	17	e5	60	d3	62	d6	69	8f	77	01	e0	16	e2	19	d5	34	0c	47	13	cb	54	bb	8d	48	64	28	48	92	04	ce	cd	c8	a5	a3	5e	63	0b	fc	ad	d0	70	a8	e1	12	03	6e	15	e4	ca	89	9c	21	78	95	9d	f6	e9	ea	8c	29	fa	90	b0	d9	92	c0	b2	f0	1f	6a	7c	d5	25	e9	77	8b	d1	4c	07	59	26	40	1d	81	1b	b3	0f	33	f8	fd	21	e8	91	bf	2d	a3	8a	f2	a1	dd	99	6e	1d	df	7c	21	13	e3	db	3c	a4	44	bf	83	65	9a	fe	65	e9	68	41	69	ef	94	53	0e	f4	11	90	f6	86	e2	b3	c6	5f	b4	33	b3	ab	aa	70	2d	fd	3e	9c	1c	e7	b7	ce	37	0e	11	8e	9f	6d	be	9f	66	b9	19	73	07	11	9d	7f	78	dd	05	b5	b1	10	8e	a3	b3	7a	9c	ec	7f	4a	b7	98	3a	c2	06	78	bd	3d	
7e	67	99	a3	db	7b	11	aa	ed	99	3f	fe	d6	cd	ba	ea	90	06	b8	54	59	46	57	03	75	ea	e5	5d	ae	d5	5b	42	38	51	0a	97	35	49	d9	2b	9e	9f	1f	07	a4	f5	b2	de	ac	df	a4	59	79	11	47	72	26	f7	f4	8b	ae	cf	f2	d9	7f	73	24	67	ee	6d	ce	d6	24	58	07	1a	6b	a1	f8	80	07	00	8c	6c	1f	a5	7d	6b	d3	02	b1	8f	8a	7d	06	68	5b	03	a8	56	85	f6	b5	c6	0f	68	c3	bc	ae	70	db	e9	fb	7d	e5	2f	3b	90	e3	ba	93	d0	c5	2b	1f	51	f6	25	44	e9	8b	1d	90	bb	78	2d	ac	dc	9b	ee	20	c5	ff	69	52	f0	e9	07	41	50	0d	4e	40	22	39	2c	f5	b0	10	89	df	ad	05	fb	0f	a6	a1	c1	ab	b2	98	7a	b0	0d	04	34	dc	39	62	96	f1	c7	44	a2	66	b1	5d	fc	33	22	a6	ad	57	c2	a8	6a	0a	e0	82	c5	54	5b	47	ff	0e	3e	82	97	66	91	6a	a6	4b	dc	75	14	82	f6	11	10	5e	ae	13	45	c8	72	aa	7a	1b	4c	53	10	2c	56	d8	87	c2	83	bb	d5	57	4a	fc	0f	f4	2e	a1	3b	81	23	9d	d8	5c	3b	ce	60	86	18	46	94	c6	aa	bd	6b	bd	24	be	d3	09	45	d8	3a	40	ed	d7	e1	85	94	0f	e0	23	20	6c	0a	f7	92	ea	7b	70	b5	a2	36	d3	83	88	d5	03	cf	db	22	e2	56	93	d8	ff	7b	e8	60	ec	95	81	28	f7	22	d9	c9	7a	df	8e	19	1d	81	b8	cc	dd	17	e5	60	d3	62	d6	69	8f	77	01	e0	16	e2	19	d5	34	0c	47	13	cb	54	bb	8d	48	64	28	48	92	04	ce	cd	c8	a5	a3	5e	63	0b	fc	ad	d0	70	a8	e1	12	03	6e	15	e4	ca	89	9c	21	78	95	9d	f6	e9	ea	8c	29	fa	90	b0	d9	92	c0	b2	f0	1f	6a	7c	d5	25	e9	77	8b	d1	4c	07	59	26	40	1d	81	1b	b3	0f	33	f8	fd	21	e8	91	bf	2d	a3	8a	f2	a1	dd	99	6e	1d	df	7c	21	13	e3	db	3c	a4	44	bf	83	65	9a	fe	65	e9	68	41	69	ef	94	53	0e	f4	11	90	f6	86	e2	b3	c6	5f	b4	33	b3	ab	aa	70	2d	fd	3e	9c	1c	e7	b7	ce	37	0e	11	8e	9f	6d	be	9f	66	b9	19	73	07	11	9d	7f	78	dd	05	b5	b1	10	8e	a3	b3	7a	9c	ec	7f	4a	b7	98	3a	c2	06	78	bd	3d	
7e	67	99	a3	db	7b	11	aa	ed	99	3f	fe	d6	cd	ba	ea	90	06	b8	54	59	46	57	03	75	ea	e5	5d	ae	d5	5b	42	38	51	0a	97	35	49	d9	2b	9e	9f	1f	07	a4	f5	b2	de	ac	df	a4	59	79	11	47	72	26	f7	f4	8b	ae	cf	f2	d9	7f	73	24	67	ee	6d	ce	d6	24	58	07	1a	6b	a1	f8	80	07	00	8c	6c	1f	a5	7d	6b	d3	02	b1	8f	8a	7d	06	68	5b	03	a8	56	85	f6	b5	c6	0f	68	c3	bc	ae	70	db	e9	fb	7d	e5	2f	3b	90	e3	ba	93	d0	c5	2b	1f	51	f6	25	44	e9	8b	1d	90	bb	78	2d	ac	dc	9b	ee	20	c5	ff	69	52	f0	e9	07	41	50	0d	4e	40	22	39	2c	f5	b0	10	89	df	ad	05	fb	0f	a6	a1	c1	ab	b2	98	7a	b0	0d	04	34	dc	39	62	96	f1	c7	44	a2	66	b1	5d	fc	33	22	a6	ad	57	c2	a8	6a	0a	e0	82	c5	54	5b	47	ff	0e	3e	82	97	66	91	6a	a6	4b	dc	75	14	82	f6	11	10	5e	ae	13	45	c8	72	aa	7a	1b	4c	53	10	2c	56	d8	87	c2	83	bb	d5	57	4a	fc	0f	f4	2e	a1	3b	81	23	9d	d8	5c	3b	ce	60	86	18	46	94	c6	aa	bd	6b	bd	24	be	d3	09	45	d8	3a	40	ed	d7	e1	85	94	0f	e0	23	20	6c	0a	f7	92	ea	7b	70	b5	a2	36	d3	83	88	d5	03	cf	db	22	e2	56	93	d8	ff	7b	e8	60	ec	95	81	28	f7	22	d9	c9	7a	df	8e	19	1d	81	b8	cc	dd	17	e5	60	d3	62	d6	69	8f	77	01	e0	16	e2	19	d5	34	0c	47	13	cb	54	bb	8d	48	64	28	48	92	04	ce	cd	c8	a5	a3	5e	63	0b	fc	ad	d0	70	a8	e1	12	03	6e	15	e4	ca	89	9c	21	78	95	9d	f6	e9	ea	8c	29	fa	90	b0	d9	92	c0	b2	f0	1f	6a	7c	d5	25	e9	77	8b	d1	4c	07	59	26	40	1d	81	1b	b3	0f	33	f8	fd	21	e8	91	bf	2d	a3	8a	f2	a1	dd	99	6e	1d	df	7c	21	13	e3	db	3c	a4	44	bf	83	65	9a	fe	65	e9	68	41	69	ef	94	53	0e	f4	11	90	f6	86	e2	b3	c6	5f	b4	33	b3	ab	aa	70	2d	fd	3e	9c	1c	e7	b7	ce	37	0e	11	8e	9f	6d	be	9f	66	b9	19	73	07	11	9d	7f	78	dd	05	b5	b1	10	8e	a3	b3	7a	9c	ec	7f	4a	b7	98	3a	c2	06	78	bd	3d	
7e	67	99	a3	db	7b	11	aa	ed	99	3f	fe	d6	cd	ba	ea	90	06	b8	54	59	46	57	03	75	ea	e5	5d	ae	d5	5b	42	38	51	0a	97	35	49	d9	2b	9e	9f	1f	07	a4	f5	b2	de	ac	df	a4	59	79	11	47	72	26	f7	f4	8b	ae	cf	f2	d9	7f	73	24	67	ee	6d	ce	d6	24	58	07	1a	6b	a1	f8	80	07	00	8c	6c	1f	a5	7d	6b	d3	02	b1	8f	8a	7d	06	68	5b	03	a8	56	85	f6	b5	c6	0f	68	c3	bc	ae	70	db	e9	fb	7d	e5	2f	3b	90	e3	ba	93	d0	c5	2b	1f	51	f6	25	44	e9	8b	1d	90	bb	78	2d	ac	dc	9b	ee	20	c5	ff	69	52	f0	e9	07	41	50	0d	4e	40	22	39	2c	f5	b0	10	89	df	ad	05	fb	0f	a6	a1	c1	ab	b2	98	7a	b0	0d	04	34	dc	39	62	96	f1	c7	44	a2	66	b1	5d	fc	33	22	a6	ad	57	c2	a8	6a	0a	e0	82	c5	54	5b	47	ff	0e	3e	82	97	66	91	6a	a6	4b	dc	75	14	82	f6	11	10	5e	ae	13	45	c8	72	aa	7a	1b	4c	53	10	2c	56	d8	87	c2	83	bb	d5	57	4a	fc	0f	f4	2e	a1	3b	81	23	9d	d8	5c	3b	ce	60	86	18	46	94	c6	aa	bd	6b	bd	24	be	d3	09	45	d8	3a	40	ed	d7	e1	85	94	0f	e0	23	20	6c	0a	f7	92	ea	7b	70	b5	a2	36	d3	83	88	d5	03	cf	db	22	e2	56	93	d8	ff	7b	e8	60	ec	95	81	28	f7	22	d9	c9	7a	df	8e	19	1d	81	b8	cc	dd	17	e5	60	d3	62	d6	69	8f	77	01	e0	16	e2	19	d5	34	0c	47	13	cb	54	bb	8d	48	64	28	48	92	04	ce	cd	c8	a5	a3	5e	63	0b	fc	ad	d0	70	a8	e1	12	03	6e	15	e4	ca	89	9c	21	78	95	9d	f6	e9	ea	8c	29	fa	90	b0	d9	92	c0	b2	f0	1f	6a	7c	d5	25	e9	77	8b	d1	4c	07	59	26	40	1d	81	1b	b3	0f	33	f8	fd	21	e8	91	bf	2d	a3	8a	f2	a1	dd	99	6e	1d	df	7c	21	13	e3	db	3c	a4	44	bf	83	65	9a	fe	65	e9	68	41	69	ef	94	53	0e	f4	11	90	f6	86	e2	b3	c6	5f	b4	33	b3	ab	aa	70	2d	fd	3e	9c	1c	e7	b7	ce	37	0e	11	8e	9f	6d	be	9f	66	b9	19	73	07	11	9d	7f	78	dd	05	b5	b1	10	8e	a3	b3	7a	9c	ec	7f	4a	b7	98	3a	c2	06	78	bd	3d	
7e	67	99	a3	db	7b	11	aa	ed	99	3f	fe	d6	cd	ba	ea	90	06	b8	54	59	46	57	03	75	ea	e5	5d	ae	d5	5b	42	38	51	0a	97	35	49	d9	2b	9e	9f	1f	07	a4	f5	b2	de	ac	df	a4	59	79	11	47	72	26	f7	f4	8b	ae	cf	f2	d9	7f	73	24	67	ee	6d	ce	d6	24	58	07	1a	6b	a1	f8	80	07	00	8c	6c	1f	a5	7d	6b	d3	02	b1	8f	8a	7d	06	68	5b	03	a8	56	85	f6	b5	c6	0f	68	c3	bc	ae	70	db	e9	fb	7d	e5	2f	3b	90	e3	ba	93	d0	c5	2b	1f	51	f6	25	44	e9	8b	1d	90	bb	78	2d	ac	dc	9b	ee	20	c5	ff	69	52	f0	e9	07	41	50	0d	4e	40	22	39	2c	f5	b0	10	89	df	ad	05	fb	0f	a6	a1	c1	ab	b2	98	7a	b0	0d	04	34	dc	39	62	96	f1	c7	44	a2	66	b1	5d	fc	33	22	a6	ad	57	c2	a8	6a	0a	e0	82	c5	54	5b	47	ff	0e	3e	82	97	66	91	6a	a6	4b	dc	75	14	82	f6	11	10	5e	ae	13	45	c8	72	aa	7a	1b	4c	53	10	2c	56	d8	87	c2	83	bb	d5	57	4a	fc	0f	f4	2e	a1	3b	81	23	9d	d8	5c	3b	ce	60	86	18	46	94	c6	aa	bd	6b	bd	24	be	d3	09	45	d8	3a	40	ed	d7	e1	85	94	0f	e0	23	20	6c	0a	f7	92	ea	7b	70	b5	a2	36	d3	83	88	d5	03	cf	db	22	e2	56	93	d8	ff	7b	e8	60	ec	95	81	28	f7	22	d9	c9	7a	df	8e	19	1d	81	b8	cc	dd	17	e5	60	d3	62	d6	69	8f	77	01	e0	16	e2	19	d5	34	0c	47	13	cb	54	bb	8d	48	64	28	48	92	04	ce	cd	c8	a5	a3	5e	63	0b	fc	ad	d0	70	a8	e1	12	03	6e	15	e4	ca	89	9c	21	78	95	9d	f6	e9	ea	8c	29	fa	90	b0	d9	92	c0	b2	f0	1f	6a	7c	d5	25	e9	77	8b	d1	4c	07	59	26	40	1d	81	1b	b3	0f	33	f8	fd	21	e8	91	bf	2d	a3	8a	f2	a1	dd	99	6e	1d	df	7c	21	13	e3	db	3c	a4	44	bf	83	65	9a	fe	65	e9	68	41	69	ef	94	53	0e	f4	11	90	f6	86	e2	b3	c6	5f	b4	33	b3	ab	aa	70	2d	fd	3e	9c	1c	e7	b7	ce	37	0e	11	8e	9f	6d	be	9f	66	b9	19	73	07	11	9d	7f	78	dd	05	b5	b1	10	8e	a3	b3	7a	9c	ec	7f	4a	b7	98	3a	c2	06	78	bd	3d	
7e	67	99	a3	db	7b	11	aa	ed	99	3f	fe	d6	cd	ba	ea	90	06	b8	54	59	46	57	03	75	ea	e5	5d	ae	d5	5b	42	38	51	0a	97	35	49	d9	2b	9e	9f	1f	07	a4	f5	b2	de	ac	df	a4	59	79	11	47	72	26	f7	f4	8b	ae	cf	f2	d9	7f	73	24	67	ee	6d	ce	d6	24	58	07	1a	6b	a1	f8	80	07	00	8c	6c	1f	a5	7d	6b	d3	02	b1	8f	8a	7d	06	68	5b	03	a8	56	85	f6	b5	c6	0f	68	c3	bc	ae	70	db	e9	fb	7d	e5	2f	3b	90	e3	ba	93	d0	c5	2b	1f	51	f6	25	44	e9	8b	1d	90	bb	78	2d	ac	dc	9b	ee	20	c5	ff	69	52	f0	e9	07	41	50	0d	4e	40	22	39	2c	f5	b0	10	89	df	ad	05	fb	0f	a6	a1	c1	ab	b2	98	7a	b0	0d	04	34	dc	39	62	96	f1	c7	44	a2	66	b1	5d	fc	33	22	a6	ad	57	c2	a8	6a	0a	e0	82	c5	54	5b	47	ff	0e	3e	82	97	66	91	6a	a6	4b	dc	75	14	82	f6	11	10	5e	ae	13	45	c8	72	aa	7a	1b	4c	53	10	2c	56	d8	87	c2	83	bb	d5	57	4a	fc	0f	f4	2e	a1	3b	81	23	9d	d8	5c	3b	ce	60	86	18	46	94	c6	aa	bd	6b	bd	24	be	d3	09	45	d8	3a	40	ed	d7	e1	85	94	0f	e0	23	20	6c	0a	f7	92	ea	7b	70	b5	a2	36	d3	83	88	d5	03	cf	db	22	e2	56	93	d8	ff	7b	e8	60	ec	95	81	28	f7	22	d9	c9	7a	df	8e	19	1d	81	b8	cc	dd	17	e5	60	d3	62	d6	69	8f	77	01	e0	16	e2	19	d5	34	0c	47	13	cb	54	bb	8d	48	64	28	48	92	04	ce	cd	c8	a5	a3	5e	63	0b	fc	ad	d0	70	a8	e1	12	03	6e	15	e4	ca	89	9c	21	78	95	9d	f6	e9	ea	8c	29	fa	90	b0	d9	92	c0	b2	f0	1f	6a	7c	d5	25	e9	77	8b	d1	4c	07	59	26	40	1d	81	1b	b3	0f	33	f8	fd	21	e8	91	bf	2d	a3	8a	f2	a1	dd	99	6e	1d	df	7c	21	13	e3	db	3c	a4	44	bf	83	65	9a	fe	65	e9	68	41	69	ef	94	53	0e	f4	11	90	f6	86	e2	b3	c6	5f	b4	33	b3	ab	aa	70	2d	fd	3e	9c	1c	e7	b7	ce	37	0e	11	8e	9f	6d	be	9f	66	b9	19	73	07	11	9d	7f	78	dd	05	b5	b1	10	8e	a3	b3	7a	9c	ec	7f	4a	b7	98	3a	c2	06	78	bd	3d	
7e	67	99	a3	db	7b	11	aa	ed	99	3f	fe	d6	cd	ba	ea	90	06	b8	54	59	46	57	03	75	ea	e5	5d	ae	d5	5b	42	38	51	0a	97	35	49	d9	2b	9e	9f	1f	07	a4	f5	b2	de	ac	df	a4	59	79	11	47	72	26	f7	f4	8b	ae	cf	f2	d9	7f	73	24	67	ee	6d	ce	d6	24	58	07	1a	6b	a1	f8	80	07	00	8c	6c	1f	a5	7d	6b	d3	02	b1	8f	8a	7d	06	68	5b	03	a8	56	85	f6	b5	c6	0f	68	c3	bc	ae	70	db	e9	fb	7d	e5	2f	3b	90	e3	ba	93	d0	c5	2b	1f	51	f6	25	44	e9	8b	1d	90	bb	78	2d	ac	dc	9b	ee	20	c5	ff	69	52	f0	e9	07	41	50	0d	4e	40	22	39	2c	f5	b0	10	89	df	ad	05	fb	0f	a6	a1	c1	ab	b2	98	7a	b0	0d	04	34	dc	39	62	96	f1	c7	44	a2	66	b1	5d	fc	33	22	a6	ad	57	c2	a8	6a	0a	e0	82	c5	54	5b	47	ff	0e	3e	82	97	66	91	6a	a6	4b	dc	75	14	82	f6	11	10	5e	ae	13	45	c8	72	aa	7a	1b	4c	53	10	2c	56	d8	87	c2	83	bb	d5	57	4a	fc	0f	f4	2e	a1	3b	81	23	9d	d8	5c	3b	ce	60	86	18	46	94	c6	aa	bd	6b	bd	24	be	d3	09	45	d8	3a	40	ed	d7	e1	85	94	0f	e0	23	20	6c	0a	f7	92	ea	7b	70	b5	a2	36	d3	83	88	d5	03	cf	db	22	e2	56	93	d8	ff	7b	e8	60	ec	95	81	28	f7	22	d9	c9	7a	df	8e	19	1d	81	b8	cc	dd	17	e5	60	d3	62	d6	69	8f	77	01	e0	16	e2	19	d5	34	0c	47	13	cb	54	bb	8d	48	64	28	48	92	04	ce	cd	c8	a5	a3	5e	63	0b	fc	ad	d0	70	a8	e1	12	03	6e	15	e4	ca	89	9c	21	78	95	9d	f6	e9	ea	8c	29	fa	90	b0	d9	92	c0	b2	f0	1f	6a	7c	d5	25	e9	77	8b	d1	4c	07	59	26	40	1d	81	1b	b3	0f	33	f8	fd	21	e8	91	bf	2d	a3	8a	f2	a1	dd	99	6e	1d	df	7c	21	13	e3	db	3c	a4	44	bf	83	65	9a	fe	65	e9	68	41	69	ef	94	53	0e	f4	11	90	f6	86	e2	b3	c6	5f	b4	33	b3	ab	aa	70	2d	fd	3e	9c	1c	e7	b7	ce	37	0e	11	8e	9f	6d	be	9f	66	b9	19	73	07	11	9d	7f	78	dd	05	b5	b1	10	8e	a3	b3	7a	9c	ec	7f	4a	b7	98	3a	c2	06	78	bd	3d	
7e	67	99	a3	db	7b	11	aa	ed	99	3f	fe	d6	cd	ba	ea	90	06	b8	54	59	46	57	03	75	ea	e5	5d	ae	d5	5b	42	38	51	0a	97	35	49	d9	2b	9e	9f	1f	07	a4	f5	b2	de	ac	df	a4	59	79	11	47	72	26	f7	f4	8b	ae	cf	f2	d9	7f	73	24	67	ee	6d	ce	d6	24	58	07	1a	6b	a1	f8	80	07	00	8c	6c	1f	a5	7d	6b	d3	02	b1	8f	8a	7d	06	68	5b	03	a8	56	85	f6	b5	c6	0f	68	c3	bc	ae	70	db	e9	fb	7d	e5	2f	3b	90	e3	ba	93	d0	c5	2b	1f	51	f6	25	44	e9	8b	1d	90	bb	78	2d	ac	dc	9b	ee	20	c5	ff	69	52	f0	e9	07	41	50	0d	4e	40	22	39	2c	f5	b0	10	89	df	ad	05	fb	0f	a6	a1	c1	ab	b2	98	7a	b0	0d	04	34	dc	39	62	96	f1	c7	44	a2	66	b1	5d	fc	33	22	a6	ad	57	c2	a8	6a	0a	e0	82	c5	54	5b	47	ff	0e	3e	82	97	66	91	6a	a6	4b	dc	75	14	82	f6	11	10	5e	ae	13	45	c8	72	aa	7a	1b	4c	53	10	2c	56	d8	87	c2	83	bb	d5	57	4a	fc	0f	f4	2e	a1	3b	81	23	9d	d8	5c	3b	ce	60	86	18	46	94	c6	aa	bd	6b	bd	24	be	d3	09	45	d8	3a	40	ed	d7	e1	85	94	0f	e0	23	20	6c	0a	f7	92	ea	7b	70	b5	a2	36	d3	83	88	d5	03	cf	db	22	e2	56	93	d8	ff	7b	e8	60	ec	95	81	28	f7	22	d9	c9	7a	df	8e	19	1d	81	b8	cc	dd	17	e5	60	d3	62	d6	69	8f	77	01	e0	16	e2	19	d5	34	0c	47	13	cb	54	bb	8d	48	64	28	48	92	04	ce	cd	c8	a5	a3	5e	63	0b	fc	ad	d0	70	a8	e1	12	03	6e	15	e4	ca	89	9c	21	78	95	9d	f6	e9	ea	8c	29	fa	90	b0	d9	92	c0	b2	f0	1f	6a	7c	d5	25	e9	77	8b	d1	4c	07	59	26	40	1d	81	1b	b3	0f	33	f8	fd	21	e8	91	bf	2d	a3	8a	f2	a1	dd	99	6e	1d	df	7c	21	13	e3	db	3c	a4	44	bf	83	65	9a	fe	65	e9	68	41	69	ef	94	53	0e	f4	11	90	f6	86	e2	b3	c6	5f	b4	33	b3	ab	aa	70	2d	fd	3e	9c	1c	e7	b7	ce	37	0e	11	8e	9f	6d	be	9f	66	b9	19	73	07	11	9d	7f	78	dd	05	b5	b1	10	8e	a3	b3	7a	9c	ec	7f	4a	b7	98	3a	c2	06	78	bd	3d	
7e	67	99	a3	db	7b	11	aa	ed	99	3f	fe	d6	cd	ba	ea	90	06	b8	54	59	46	57	03	75	ea	e5	5d	ae	d5	5b	42	38	51	0a	97	35	49	d9	2b	9e	9f	1f	07	a4	f5	b2	de	ac	df	a4	59	79	11	47	72	26	f7	f4	8b	ae	cf	f2	d9	7f	73	24	67	ee	6d	ce	d6	24	58	07	1a	6b	a1	f8	80	07	00	8c	6c	1f	a5	7d	6b	d3	02	b1	8f	8a	7d	06	68	5b	03	a8	56	85	f6	b5	c6	0f	68	c3	bc	ae	70	db	e9	fb	7d	e5	2f	3b	90	e3	ba	93	d0	c5	2b	1f	51	f6	25	44	e9	8b	1d	90	bb	78	2d	ac	dc	9b	ee	20	c5	ff	69	52	f0	e9	07	41	50	0d	4e	40	22	39	2c	f5	b0	10	89	df	ad	05	fb	0f	a6	a1	c1	ab	b2	98	7a	b0	0d	04	34	dc	39	62	96	f1	c7	44	a2	66	b1	5d	fc	33	22	a6	ad	57	c2	a8	6a	0a	e0	82	c5	54	5b	47	ff	0e	3e	82	97	66	91	6a	a6	4b	dc	75	14	82	f6	11	10	5e	ae	13	45	c8	72	aa	7a	1b	4c	53	10	2c	56	d8	87	c2	83	bb	d5	57	4a	fc	0f	f4	2e	a1	3b	81	23	9d	d8	5c	3b	ce	60	86	18	46	94	c6	aa	bd	6b	bd	24	be	d3	09	45	d8	3a	40	ed	d7	e1	85	94	0f	e0	23	20	6c	0a	f7	92	ea	7b	70	b5	a2	36	d3	83	88	d5	03	cf	db	22	e2	56	93	d8	ff	7b	e8	60	ec	95	81	28	f7	22	d9	c9	7a	df	8e	19	1d	81	b8	cc	dd	17	e5	60	d3	62	d6	69	8f	77	01	e0	16	e2	19	d5	34	0c	47	13	cb	54	bb	8d	48	64	28	48	92	04	ce	cd	c8	a5	a3	5e	63	0b	fc	ad	d0	70	a8	e1	12	03	6e	15	e4	ca	89	9c	21	78	95	9d	f6	e9	ea	8c	29	fa	90	b0	d9	92	c0	b2	f0	1f	6a	7c	d5	25	e9	77	8b	d1	4c	07	59	26	40	1d	81	1b	b3	0f	33	f8	fd	21	e8	91	bf	2d	a3	8a	f2	a1	dd	99	6e	1d	df	7c	21	13	e3	db	3c	a4	44	bf	83	65	9a	fe	65	e9	68	41	69	ef	94	53	0e	f4	11	90	f6	86	e2	b3	c6	5f	b4	33	b3	ab	aa	70	2d	fd	3e	9c	1c	e7	b7	ce	37	0e	11	8e	9f	6d	be	9f	66	b9	19	73	07	11	9d	7f	78	dd	05	b5	b1	10	8e	a3	b3	7a	9c	ec	7f	4a	b7	98	3a	c2	06	78	bd	3d	
7e	67	99	a3	db	7b	11	aa	ed	99	3f	fe	d6	cd	ba	ea	90	06	b8	54	59	46	57	03	75	ea	e5	5d	ae	d5	5b	42	38	51	0a	97	35	49	d9	2b	9e	9f	1f	07	a4	f5	b2	de	ac	df	a4	59	79	11	47	72	26	f7	f4	8b	ae	cf	f2	d9	7f	73	24	67	ee	6d	ce	d6	24	58	07	1a	6b	a1	f8	80	07	00	8c	6c	1f	a5	7d	6b	d3	02	b1	8f	8a	7d	06	68	5b	03	a8	56	85	f6	b5	c6	0f	68	c3	bc	ae	70	db	e9	fb	7d	e5	2f	3b	90	e3	ba	93	d0	c5	2b	1f	51	f6	25	44	e9	8b	1d	90	bb	78	2d	ac	dc	9b	ee	20	c5	ff	69	52	f0	e9	07	41	50	0d	4e	40	22	39	2c	f5	b0	10	89	df	ad	05	fb	0f	a6	a1	c1	ab	b2	98	7a	b0	0d	04	34	dc	39	62	96	f1	c7	44	a2	66	b1	5d	fc	33	22	a6	ad	57	c2	a8	6a	0a	e0	82	c5	54	5b	47	ff	0e	3e	82	97	66	91	6a	a6	4b	dc	75	14	82	f6	11	10	5e	ae	13	45	c8	72	aa	7a	1b	4c	53	10	2c	56	d8	87	c2	83	bb	d5	57	4a	fc	0f	f4	2e	a1	3b	81	23	9d	d8	5c	3b	ce	60	86	18	46	94	c6	aa	bd	6b	bd	24	be	d3	09	45	d8	3a	40	ed	d7	e1	85	94	0f	e0	23	20	6c	0a	f7	92	ea	7b	70	b5	a2	36	d3	83	88	d5	03	cf	db	22	e2	56	93	d8	ff	7b	e8	60	ec	95	81	28	f7	22	d9	c9	7a	df	8e	19	1d	81	b8	cc	dd	17	e5	60	d3	62	d6	69	8f	77	01	e0	16	e2	19	d5	34	0c	47	13	cb	54	bb	8d	48	64	28	48	92	04	ce	cd	c8	a5	a3	5e	63	0b	fc	ad	d0	70	a8	e1	12	03	6e	15	e4	ca	89	9c	21	78	95	9d	f6	e9	ea	8c	29	fa	90	b0	d9	92	c0	b2	f0	1f	6a	7c	d5	25	e9	77	8b	d1	4c	07	59	26	40	1d	81	1b	b3	0f	33	f8	fd	21	e8	91	bf	2d	a3	8a	f2	a1	dd	99	6e	1d	df	7c	21	13	e3	db	3c	a4	44	bf	83	65	9a	fe	65	e9	68	41	69	ef	94	53	0e	f4	11	90	f6	86	e2	b3	c6	5f	b4	33	b3	ab	aa	70	2d	fd	3e	9c	1c	e7	b7	ce	37	0e	11	8e	9f	6d	be	9f	66	b9	19	73	07	11	9d	7f	78	dd	05	b5	b1	10	8e	a3	b3	7a	9c	ec	7f	4a	b7	98	3a	c2	06	78	bd	3d	
7e	67	99	a3	db	7b	11	aa	ed	99	3f	fe	d6	cd	ba	ea	90	06	b8	54	59	46	57	03	75	ea	e5	5d	ae	d5	5b	42	38	51	0a	97	35	49	d9	2b	9e	9f	1f	07	a4	f5	b2	de	ac	df	a4	59	79	11	47	72	26	f7	f4	8b	ae	cf	f2	d9	7f	73	24	67	ee	6d	ce	d6	24	58	07	1a	6b	a1	f8	80	07	00	8c	6c	1f	a5	7d	6b	d3	02	b1	8f	8a	7d	06	68	5b	03	a8	56	85	f6	b5	c6	0f	68	c3	bc	ae	70	db	e9	fb	7d	e5	2f	3b	90	e3	ba	93	d0	c5	2b	1f	51	f6	25	44	e9	8b	1d	90	bb	78	2d	ac	dc	9b	ee	20	c5	ff	69	52	f0	e9	07	41	50	0d	4e	40	22	39	2c	f5	b0	10	89	df	ad	05	fb	0f	a6	a1	c1	ab	b2	98	7a	b0	0d	04	34	dc	39	62	96	f1	c7	44	a2	66	b1	5d	fc	33	22	a6	ad	57	c2	a8	6a	0a	e0	82	c5	54	5b	47	ff	0e	3e	82	97	66	91	6a	a6	4b	dc	75	14	82	f6	11	10	5e	ae	13	45	c8	72	aa	7a	1b	4c	53	10	2c	56	d8	87	c2	83	bb	d5	57	4a	fc	0f	f4	2e	a1	3b	81	23	9d	d8	5c	3b	ce	60	86	18	46	94	c6	aa	bd	6b	bd	24	be	d3	09	45	d8	3a	40	ed	d7	e1	85	94	0f	e0	23	20	6c	0a	f7	92	ea	7b	70	b5	a2	36	d3	83	88	d5	03	cf	db	22	e2	56	93	d8	ff	7b	e8	60	ec	95	81	28	f7	22	d9	c9	7a	df	8e	19	1d	81	b8	cc	dd	17	e5	60	d3	62	d6	69	8f	77	01	e0	16	e2	19	d5	34	0c	47	13	cb	54	bb	8d	48	64	28	48	92	04	ce	cd	c8	a5	a3	5e	63	0b	fc	ad	d0	70	a8	e1	12	03	6e	15	e4	ca	89	9c	21	78	95	9d	f6	e9	ea	8c	29	fa	90	b0	d9	92	c0	b2	f0	1f	6a	7c	d5	25	e9	77	8b	d1	4c	07	59	26	40	1d	81	1b	b3	0f	33	f8	fd	21	e8	91	bf	2d	a3	8a	f2	a1	dd	99	6e	1d	df	7c	21	13	e3	db	3c	a4	44	bf	83	65	9a	fe	65	e9	68	41	69	ef	94	53	0e	f4	11	90	f6	86	e2	b3	c6	5f	b4	33	b3	ab	aa	70	2d	fd	3e	9c	1c	e7	b7	ce	37	0e	11	8e	9f	6d	be	9f	66	b9	19	73	07	11	9d	7f	78	dd	05	b5	b1	10	8e	a3	b3	7a	9c	ec	7f	4a	b7	98	3a	c2	06	78	bd	3d	
7e	67	99	a3	db	7b	11	aa	ed	99	3f	fe	d6	cd	ba	ea	90	06	b8	54	59	46	57	03	75	ea	e5	5d	ae	d5	5b	42	38	51	0a	97	35	49	d9	2b	9e	9f	1f	07	a4	f5	b2	de	ac	df	a4	59	79	11	47	72	26	f7	f4	8b	ae	cf	f2	d9	7f	73	24	67	ee	6d	ce	d6	24	58	07	1a	6b	a1	f8	80	07	00	8c	6c	1f	a5	7d	6b	d3	02	b1	8f	8a	7d	06	68	5b	03	a8	56	85	f6	b5	c6	0f	68	c3	bc	ae	70	db	e9	fb	7d	e5	2f	3b	90	e3	ba	93	d0	c5	2b	1f	51	f6	25	44	e9	8b	1d	90	bb	78	2d	ac	dc	9b	ee	20	c5	ff	69	52	f0	e9	07	41	50	0d	4e	40	22	39	2c	f5	b0	10	89	df	ad	05	fb	0f	a6	a1	c1	ab	b2	98	7a	b0	0d	04	34	dc	39	62	96	f1	c7	44	a2	66	b1	5d	fc	33	22	a6	ad	57	c2	a8	6a	0a	e0	82	c5	54	5b	47	ff	0e	3e	82	97	66	91	6a	a6	4b	dc	75	14	82	f6	11	10	5e	ae	13	45	c8	72	aa	7a	1b	4c	53	10	2c	56	d8	87	c2	83	bb	d5	57	4a	fc	0f	f4	2e	a1	3b	81	23	9d	d8	5c	3b	ce	60	86	18	46	94	c6	aa	bd	6b	bd	24	be	d3	09	45	d8	3a	40	ed	d7	e1	85	94	0f	e0	23	20	6c	0a	f7	92	ea	7b	70	b5	a2	36	d3	83	88	d5	03	cf	db	22	e2	56	93	d8	ff	7b	e8	60	ec	95	81	28	f7	22	d9	c9	7a	df	8e	19	1d	81	b8	cc	dd	17	e5	60	d3	62	d6	69	8f	77	01	e0	16	e2	19	d5	34	0c	47	13	cb	54	bb	8d	48	64	28	48	92	04	ce	cd	c8	a5	a3	5e	63	0b	fc	ad	d0	70	a8	e1	12	03	6e	15	e4	ca	89	9c	21	78	95	9d	f6	e9	ea	8c	29	fa	90	b0	d9	92	c0	b2	f0	1f	6a	7c	d5	25	e9	77	8b	d1	4c	07	59	26	40	1d	81	1b	b3	0f	33	f8	fd	21	e8	91	bf	2d	a3	8a	f2	a1	dd	99	6e	1d	df	7c	21	13	e3	db	3c	a4	44	bf	83	65	9a	fe	65	e9	68	41	69	ef	94	53	0e	f4	11	90	f6	86	e2	b3	c6	5f	b4	33	b3	ab	aa	70	2d	fd	3e	9c	1c	e7	b7	ce	37	0e	11	8e	9f	6d	be	9f	66	b9	19	73	07	11	9d	7f	78	dd	05	b5	b1	10	8e	a3	b3	7a	9c	ec	7f	4a	b7	98	3a	c2	06	78	bd	3d	
7e	67	99	a3	db	7b	11	aa	ed	99	3f	fe	d6	cd	ba	ea	90	06	b8	54	59	46	57	03	75	ea	e5	5d	ae	d5	5b	42	38	51	0a	97	35	49	d9	2b	9e	9f	1f	07	a4	f5	b2	de	ac	df	a4	59	79	11	47	72	26	f7	f4	8b	ae	cf	f2	d9	7f	73	24	67	ee	6d	ce	d6	24	58	07	1a	6b	a1	f8	80	07	00	8c	6c	1f	a5	7d	6b	d3	02	b1	8f	8a	7d	06	68	5b	03	a8	56	85	f6	b5	c6	0f	68	c3	bc	ae	70	db	e9	fb	7d	e5	2f	3b	90	e3	ba	93	d0	c5	2b	1f	51	f6	25	44	e9	8b	1d	90	bb	78	2d	ac	dc	9b	ee	20	c5	ff	69	52	f0	e9	07	41	50	0d	4e	40	22	39	2c	f5	b0	10	89	df	ad	05	fb	0f	a6	a1	c1	ab	b2	98	7a	b0	0d	04	34	dc	39	62	96	f1	c7	44	a2	66	b1	5d	fc	33	22	a6	ad	57	c2	a8	6a	0a	e0	82	c5	54	5b	47	ff	0e	3e	82	97	66	91	6a	a6	4b	dc	75	14	82	f6	11	10	5e	ae	13	45	c8	72	aa	7a	1b	4c	53	10	2c	56	d8	87	c2	83	bb	d5	57	4a	fc	0f	f4	2e	a1	3b	81	23	9d	d8	5c	3b	ce	60	86	18	46	94	c6	aa	bd	6b	bd	24	be	d3	09	45	d8	3a	40	ed	d7	e1	85	94	0f	e0	23	20	6c	0a	f7	92	ea	7b	70	b5	a2	36	d3	83	88	d5	03	cf	db	22	e2	56	93	d8	ff	7b	e8	60	ec	95	81	28	f7	22	d9	c9	7a	df	8e	19	1d	81	b8	cc	dd	17	e5	60	d3	62	d6	69	8f	77	01	e0	16	e2	19	d5	34	0c	47	13	cb	54	bb	8d	48	64	28	48	92	04	ce	cd	c8	a5	a3	5e	63	0b	fc	ad	d0	70	a8	e1	12	03	6e	15	e4	ca	89	9c	21	78	95	9d	f6	e9	ea	8c	29	fa	90	b0	d9	92	c0	b2	f0	1f	6a	7c	d5	25	e9	77	8b	d1	4c	07	59	26	40	1d	81	1b	b3	0f	33	f8	fd	21	e8	91	bf	2d	a3	8a	f2	a1	dd	99	6e	1d	df	7c	21	13	e3	db	3c	a4	44	bf	83	65	9a	fe	65	e9	68	41	69	ef	94	53	0e	f4	11	90	f6	86	e2	b3	c6	5f	b4	33	b3	ab	aa	70	2d	fd	3e	9c	1c	e7	b7	ce	37	0e	11	8e	9f	6d	be	9f	66	b9	19	73	07	11	9d	7f	78	dd	05	b5	b1	10	8e	a3	b3	7a	9c	ec	7f	4a	b7	98	3a	c2	06	78	bd	3d	
7e	67	99	a3	db	7b	11	aa	ed	99	3f	fe	d6	cd	ba	ea	90	06	b8	54	59	46	57	03	75	ea	e5	5d	ae	d5	5b	42	38	51	0a	97	35	49	d9	2b	9e	9f	1f	07	a4	f5	b2	de	ac	df	a4	59	79	11	47	72	26	f7	f4	8b	ae	cf	f2	d9	7f	73	24	67	ee	6d	ce	d6	24	58	07	1a	6b	a1	f8	80	07	00	8c	6c	1f	a5	7d	6b	d3	02	b1	8f	8a	7d	06	68	5b	03	a8	56	85	f6	b5	c6	0f	68	c3	bc	ae	70	db	e9	fb	7d	e5	2f	3b	90	e3	ba	93	d0	c5	2b	1f	51	f6	25	44	e9	8b	1d	90	bb	78	2d	ac	dc	9b	ee	20	c5	ff	69	52	f0	e9	07	41	50	0d	4e	40	22	39	2c	f5	b0	10	89	df	ad	05	fb	0f	a6	a1	c1	ab	b2	98	7a	b0	0d	04	34	dc	39	62	96	f1	c7	44	a2	66	b1	5d	fc	33	22	a6	ad	57	c2	a8	6a	0a	e0	82	c5	54	5b	47	ff	0e	3e	82	97	66	91	6a	a6	4b	dc	75	14	82	f6	11	10	5e	ae	13	45	c8	72	aa	7a	1b	4c	53	10	2c	56	d8	87	c2	83	bb	d5	57	4a	fc	0f	f4	2e	a1	3b	81	23	9d	d8	5c	3b	ce	60	86	18	46	94	c6	aa	bd	6b	bd	24	be	d3	09	45	d8	3a	40	ed	d7	e1	85	94	0f	e0	23	20	6c	0a	f7	92	ea	7b	70	b5	a2	36	d3	83	88	d5	03	cf	db	22	e2	56	93	d8	ff	7b	e8	60	ec	95	81	28	f7	22	d9	c9	7a	df	8e	19	1d	81	b8	cc	dd	17	e5	60	d3	62	d6	69	8f	77	01	e0	16	e2	19	d5	34	0c	47	13	cb	54	bb	8d	48	64	28	48	92	04	ce	cd	c8	a5	a3	5e	63	0b	fc	ad	d0	70	a8	e1	12	03	6e	15	e4	ca	89	9c	21	78	95	9d	f6	e9	ea	8c	29	fa	90	b0	d9	92	c0	b2	f0	1f	6a	7c	d5	25	e9	77	8b	d1	4c	07	59	26	40	1d	81	1b	b3	0f	33	f8	fd	21	e8	91	bf	2d	a3	8a	f2	a1	dd	99	6e	1d	df	7c	21	13	e3	db	3c	a4	44	bf	83	65	9a	fe	65	e9	68	41	69	ef	94	53	0e	f4	11	90	f6	86	e2	b3	c6	5f	b4	33	b3	ab	aa	70	2d	fd	3e	9c	1c	e7	b7	ce	37	0e	11	8e	9f	6d	be	9f	66	b9	19	73	07	11	9d	7f	78	dd	05	b5	b1	10	8e	a3	b3	7a	9c	ec	7f	4a	b7	98	3a	c2	06	78	bd	3d	
7e	67	99	a3	db	7b	11	aa	ed	99	3f	fe	d6	cd	ba	ea	90	06	b8	54	59	46	57	03	75	ea	e5	5d	ae	d5	5b	42	38	51	0a	97	35	49	d9	2b	9e	9f	1f	07	a4	f5	b2	de	ac	df	a4	59	79	11	47	72	26	f7	f4	8b	ae	cf	f2	d9	7f	73	24	67	ee	6d	ce	d6	24	58	07	1a	6b	a1	f8	80	07	00	8c	6c	1f	a5	7d	6b	d3	02	b1	8f	8a	7d	06	68	5b	03	a8	56	85	f6	b5	c6	0f	68	c3	bc	ae	70	db	e9	fb	7d	e5	2f	3b	90	e3	ba	93	d0	c5	2b	1f	51	f6	25	44	e9	8b	1d	90	bb	78	2d	ac	dc	9b	ee	20	c5	ff	69	52	f0	e9	07	41	50	0d	4e	40	22	39	2c	f5	b0	10	89	df	ad	05	fb	0f	a6	a1	c1	ab	b2	98	7a	b0	0d	04	34	dc	39	62	96	f1	c7	44	a2	66	b1	5d	fc	33	22	a6	ad	57	c2	a8	6a	0a	e0	82	c5	54	5b	47	ff	0e	3e	82	97	66	91	6a	a6	4b	dc	75	14	82	f6	11	10	5e	ae	13	45	c8	72	aa	7a	1b	4c	53	10	2c	56	d8	87	c2	83	bb	d5	57	4a	fc	0f	f4	2e	a1	3b	81	23	9d	d8	5c	3b	ce	60	86	18	46	94	c6	aa	bd	6b	bd	24	be	d3	09	45	d8	3a	40	ed	d7	e1	85	94	0f	e0	23	20	6c	0a	f7	92	ea	7b	70	b5	a2	36	d3	83	88	d5	03	cf	db	22	e2	56	93	d8	ff	7b	e8	60	ec	95	81	28	f7	22	d9	c9	7a	df	8e	19	1d	81	b8	cc	dd	17	e5	60	d3	62	d6	69	8f	77	01	e0	16	e2	19	d5	34	0c	47	13	cb	54	bb	8d	48	64	28	48	92	04	ce	cd	c8	a5	a3	5e	63	0b	fc	ad	d0	70	a8	e1	12	03	6e	15	e4	ca	89	9c	21	78	95	9d	f6	e9	ea	8c	29	fa	90	b0	d9	92	c0	b2	f0	1f	6a	7c	d5	25	e9	77	8b	d1	4c	07	59	26	40	1d	81	1b	b3	0f	33	f8	fd	21	e8	91	bf	2d	a3	8a	f2	a1	dd	99	6e	1d	df	7c	21	13	e3	db	3c	a4	44	bf	83	65	9a	fe	65	e9	68	41	69	ef	94	53	0e	f4	11	90	f6	86	e2	b3	c6	5f	b4	33	b3	ab	aa	70	2d	fd	3e	9c	1c	e7	b7	ce	37	0e	11	8e	9f	6d	be	9f	66	b9	19	73	07	11	9d	7f	78	dd	05	b5	b1	10	8e	a3	b3	7a	9c	ec	7f	4a	b7	98	3a	c2	06	78	bd	3d	
7e	67	99	a3	db	7b	11	aa	ed	99	3f	fe	d6	cd	ba	ea	90	06	b8	54	59	46	57	03	75	ea	e5	5d	ae	d5	5b	42	38	51	0a	97	35	49	d9	2b	9e	9f	1f	07	a4	f5	b2	de	ac	df	a4	59	79	11	47	72	26	f7	f4	8b	ae	cf	f2	d9	7f	73	24	67	ee	6d	ce	d6	24	58	07	1a	6b	a1	f8	80	07	00	8c	6c	1f	a5	7d	6b	d3	02	b1	8f	8a	7d	06	68	5b	03	a8	56	85	f6	b5	c6	0f	68	c3	bc	ae	70	db	e9	fb	7d	e5	2f	3b	90	e3	ba	93	d0	c5	2b	1f	51	f6	25	44	e9	8b	1d	90	bb	78	2d	ac	dc	9b	ee	20	c5	ff	69	52	f0	e9	07	41	50	0d	4e	40	22	39	2c	f5	b0	10	89	df	ad	05	fb	0f	a6	a1	c1	ab	b2	98	7a	b0	0d	04	34	dc	39	62	96	f1	c7	44	a2	66	b1	5d	fc	33	22	a6	ad	57	c2	a8	6a	0a	e0	82	c5	54	5b	47	ff	0e	3e	82	97	66	91	6a	a6	4b	dc	75	14	82	f6	11	10	5e	ae	13	45	c8	72	aa	7a	1b	4c	53	10	2c	56	d8	87	c2	83	bb	d5	57	4a	fc	0f	f4	2e	a1	3b	81	23	9d	d8	5c	3b	ce	60	86	18	46	94	c6	aa	bd	6b	bd	24	be	d3	09	45	d8	3a	40	ed	d7	e1	85	94	0f	e0	23	20	6c	0a	f7	92	ea	7b	70	b5	a2	36	d3	83	88	d5	03	cf	db	22	e2	56	93	d8	ff	7b	e8	60	ec	95	81	28	f7	22	d9	c9	7a	df	8e	19	1d	81	b8	cc	dd	17	e5	60	d3	62	d6	69	8f	77	01	e0	16	e2	19	d5	34	0c	47	13	cb	54	bb	8d	48	64	28	48	92	04	ce	cd	c8	a5	a3	5e	63	0b	fc	ad	d0	70	a8	e1	12	03	6e	15	e4	ca	89	9c	21	78	95	9d	f6	e9	ea	8c	29	fa	90	b0	d9	92	c0	b2	f0	1f	6a	7c	d5	25	e9	77	8b	d1	4c	07	59	26	40	1d	81	1b	b3	0f	33	f8	fd	21	e8	91	bf	2d	a3	8a	f2	a1	dd	99	6e	1d	df	7c	21	13	e3	db	3c	a4	44	bf	83	65	9a	fe	65	e9	68	41	69	ef	94	53	0e	f4	11	90	f6	86	e2	b3	c6	5f	b4	33	b3	ab	aa	70	2d	fd	3e	9c	1c	e7	b7	ce	37	0e	11	8e	9f	6d	be	9f	66	b9	19	73	07	11	9d	7f	78	dd	05	b5	b1	10	8e	a3	b3	7a	9c	ec	7f	4a	b7	98	3a	c2	06	78	bd	3d	
7e	67	99	a3	db	7b	11	aa	ed	99	3f	fe	d6	cd	ba	ea	90	06	b8	54	59	46	57	03	75	ea	e5	5d	ae	d5	5b	42	38	51	0a	97	35	49	d9	2b	9e	9f	1f	07	a4	f5	b2	de	ac	df	a4	59	79	11	47	72	26	f7	f4	8b	ae	cf	f2	d9	7f	73	24	67	ee	6d	ce	d6	24	58	07	1a	6b	a1	f8	80	07	00	8c	6c	1f	a5	7d	6b	d3	02	b1	8f	8a	7d	06	68	5b	03	a8	56	85	f6	b5	c6	0f	68	c3	bc	ae	70	db	e9	fb	7d	e5	2f	3b	90	e3	ba	93	d0	c5	2b	1f	51	f6	25	44	e9	8b	1d	90	bb	78	2d	ac	dc	9b	ee	20	c5	ff	69	52	f0	e9	07	41	50	0d	4e	40	22	39	2c	f5	b0	10	89	df	ad	05	fb	0f	a6	a1	c1	ab	b2	98	7a	b0	0d	04	34	dc	39	62	96	f1	c7	44	a2	66	b1	5d	fc	33	22	a6	ad	57	c2	a8	6a	0a	e0	82	c5	54	5b	47	ff	0e	3e	82	97	66	91	6a	a6	4b	dc	75	14	82	f6	11	10	5e	ae	13	45	c8	72	aa	7a	1b	4c	53	10	2c	56	d8	87	c2	83	bb	d5	57	4a	fc	0f	f4	2e	a1	3b	81	23	9d	d8	5c	3b	ce	60	86	18	46	94	c6	aa	bd	6b	bd	24	be	d3	09	45	d8	3a	40	ed	d7	e1	85	94	0f	e0	23	20	6c	0a	f7	92	ea	7b	70	b5	a2	36	d3	83	88	d5	03	cf	db	22	e2	56	93	d8	ff	7b	e8	60	ec	95	81	28	f7	22	d9	c9	7a	df	8e	19	1d	81	b8	cc	dd	17	e5	60	d3	62	d6	69	8f	77	01	e0	16	e2	19	d5	34	0c	47	13	cb	54	bb	8d	48	64	28	48	92	04	ce	cd	c8	a5	a3	5e	63	0b	fc	ad	d0	70	a8	e1	12	03	6e	15	e4	ca	89	9c	21	78	95	9d	f6	e9	ea	8c	29	fa	90	b0	d9	92	c0	b2	f0	1f	6a	7c	d5	25	e9	77	8b	d1	4c	07	59	26	40	1d	81	1b	b3	0f	33	f8	fd	21	e8	91	bf	2d	a3	8a	f2	a1	dd	99	6e	1d	df	7c	21	13	e3	db	3c	a4	44	bf	83	65	9a	fe	65	e9	68	41	69	ef	94	53	0e	f4	11	90	f6	86	e2	b3	c6	5f	b4	33	b3	ab	aa	70	2d	fd	3e	9c	1c	e7	b7	ce	37	0e	11	8e	9f	6d	be	9f	66	b9	19	73	07	11	9d	7f	78	dd	05	b5	b1	10	8e	a3	b3	7a	9c	ec	7f	4a	b7	98	3a	c2	06	78	bd	3d	
7e	67	99	a3	db	7b	11	aa	ed	99	3f	fe	d6	cd	ba	ea	90	06	b8	54	59	46	57	03	75	ea	e5	5d	ae	d5	5b	42	38	51	0a	97	35	49	d9	2b	9e	9f	1f	07	a4	f5	b2	de	ac	df	a4	59	79	11	47	72	26	f7	f4	8b	ae	cf	f2	d9	7f	73	24	67	ee	6d	ce	d6	24	58	07	1a	6b	a1	f8	80	07	00	8c	6c	1f	a5	7d	6b	d3	02	b1	8f	8a	7d	06	68	5b	03	a8	56	85	f6	b5	c6	0f	68	c3	bc	ae	70	db	e9	fb	7d	e5	2f	3b	90	e3	ba	93	d0	c5	2b	1f	51	f6	25	44	e9	8b	1d	90	bb	78	2d	ac	dc	9b	ee	20	c5	ff	69	52	f0	e9	07	41	50	0d	4e	40	22	39	2c	f5	b0	10	89	df	ad	05	fb	0f	a6	a1	c1	ab	b2	98	7a	b0	0d	04	34	dc	39	62	96	f1	c7	44	a2	66	b1	5d	fc	33	22	a6	ad	57	c2	a8	6a	0a	e0	82	c5	54	5b	47	ff	0e	3e	82	97	66	91	6a	a6	4b	dc	75	14	82	f6	11	10	5e	ae	13	45	c8	72	aa	7a	1b	4c	53	10	2c	56	d8	87	c2	83	bb	d5	57	4a	fc	0f	f4	2e	a1	3b	81	23	9d	d8	5c	3b	ce	60	86	18	46	94	c6	aa	bd	6b	bd	24	be	d3	09	45	d8	3a	40	ed	d7	e1	85	94	0f	e0	23	20	6c	0a	f7	92	ea	7b	70	b5	a2	36	d3	83	88	d5	03	cf	db	22	e2	56	93	d8	ff	7b	e8	60	ec	95	81	28	f7	22	d9	c9	7a	df	8e	19	1d	81	b8	cc	dd	17	e5	60	d3	62	d6	69	8f	77	01	e0	16	e2	19	d5	34	0c	47	13	cb	54	bb	8d	48	64	28	48	92	04	ce	cd	c8	a5	a3	5e	63	0b	fc	ad	d0	70	a8	e1	12	03	6e	15	e4	ca	89	9c	21	78	95	9d	f6	e9	ea	8c	29	fa	90	b0	d9	92	c0	b2	f0	1f	6a	7c	d5	25	e9	77	8b	d1	4c	07	59	26	40	1d	81	1b	b3	0f	33	f8	fd	21	e8	91	bf	2d	a3	8a	f2	a1	dd	99	6e	1d	df	7c	21	13	e3	db	3c	a4	44	bf	83	65	9a	fe	65	e9	68	41	69	ef	94	53	0e	f4	11	90	f6	86	e2	b3	c6	5f	b4	33	b3	ab	aa	70	2d	fd	3e	9c	1c	e7	b7	ce	37	0e	11	8e	9f	6d	be	9f	66	b9	19	73	07	11	9d	7f	78	dd	05	b5	b1	10	8e	a3	b3	7a	9c	ec	7f	4a	b7	98	3a	c2	06	78	bd	3d	
7e	67	99	a3	db	7b	11	aa	ed	99	3f	fe	d6	cd	ba	ea	90	06	b8	54	59	46	57	03	75	ea	e5	5d	ae	d5	5b	42	38	51	0a	97	35	49	d9	2b	9e	9f	1f	07	a4	f5	b2	de	ac	df	a4	59	79	11	47	72	26	f7	f4	8b	ae	cf	f2	d9	7f	73	24	67	ee	6d	ce	d6	24	58	07	1a	6b	a1	f8	80	07	00	8c	6c	1f	a5	7d	6b	d3	02	b1	8f	8a	7d	06	68	5b	03	a8	56	85	f6	b5	c6	0f	68	c3	bc	ae	70	db	e9	fb	7d	e5	2f	3b	90	e3	ba	93	d0	c5	2b	1f	51	f6	25	44	e9	8b	1d	90	bb	78	2d	ac	dc	9b	ee	20	c5	ff	69	52	f0	e9	07	41	50	0d	4e	40	22	39	2c	f5	b0	10	89	df	ad	05	fb	0f	a6	a1	c1	ab	b2	98	7a	b0	0d	04	34	dc	39	62	96	f1	c7	44	a2	66	b1	5d	fc	33	22	a6	ad	57	c2	a8	6a	0a	e0	82	c5	54	5b	47	ff	0e	3e	82	97	66	91	6a	a6	4b	dc	75	14	82	f6	11	10	5e	ae	13	45	c8	72	aa	7a	1b	4c	53	10	2c	56	d8	87	c2	83	bb	d5	57	4a	fc	0f	f4	2e	a1	3b	81	23	9d	d8	5c	3b	ce	60	86	18	46	94	c6	aa	bd	6b	bd	24	be	d3	09	45	d8	3a	40	ed	d7	e1	85	94	0f	e0	23	20	6c	0a	f7	92	ea	7b	70	b5	a2	36	d3	83	88	d5	03	cf	db	22	e2	56	93	d8	ff	7b	e8	60	ec	95	81	28	f7	22	d9	c9	7a	df	8e	19	1d	81	b8	cc	dd	17	e5	60	d3	62	d6	69	8f	77	01	e0	16	e2	19	d5	34	0c	47	13	cb	54	bb	8d	48	64	28	48	92	04	ce	cd	c8	a5	a3	5e	63	0b	fc	ad	d0	70	a8	e1	12	03	6e	15	e4	ca	89	9c	21	78	95	9d	f6	e9	ea	8c	29	fa	90	b0	d9	92	c0	b2	f0	1f	6a	7c	d5	25	e9	77	8b	d1	4c	07	59	26	40	1d	81	1b	b3	0f	33	f8	fd	21	e8	91	bf	2d	a3	8a	f2	a1	dd	99	6e	1d	df	7c	21	13	e3	db	3c	a4	44	bf	83	65	9a	fe	65	e9	68	41	69	ef	94	53	0e	f4	11	90	f6	86	e2	b3	c6	5f	b4	33	b3	ab	aa	70	2d	fd	3e	9c	1c	e7	b7	ce	37	0e	11	8e	9f	6d	be	9f	66	b9	19	73	07	11	9d	7f	78	dd	05	b5	b1	10	8e	a3	b3	7a	9c	ec	7f	4a	b7	98	3a	c2	06	78	bd	3d	
7e	67	99	a3	db	7b	11	aa	ed	99	3f	fe	d6	cd	ba	ea	90	06	b8	54	59	46	57	03	75	ea	e5	5d	ae	d5	5b	42	38	51	0a	97	35	49	d9	2b	9e	9f	1f	07	a4	f5	b2	de	ac	df	a4	59	79	11	47	72	26	f7	f4	8b	ae	cf	f2	d9	7f	73	24	67	ee	6d	ce	d6	24	58	07	1a	6b	a1	f8	80	07	00	8c	6c	1f	a5	7d	6b	d3	02	b1	8f	8a	7d	06	68	5b	03	a8	56	85	f6	b5	c6	0f	68	c3	bc	ae	70	db	e9	fb	7d	e5	2f	3b	90	e3	ba	93	d0	c5	2b	1f	51	f6	25	44	e9	8b	1d	90	bb	78	2d	ac	dc	9b	ee	20	c5	ff	69	52	f0	e9	07	41	50	0d	4e	40	22	39	2c	f5	b0	10	89	df	ad	05	fb	0f	a6	a1	c1	ab	b2	98	7a	b0	0d	04	34	dc	39	62	96	f1	c7	44	a2	66	b1	5d	fc	33	22	a6	ad	57	c2	a8	6a	0a	e0	82	c5	54	5b	47	ff	0e	3e	82	97	66	91	6a	a6	4b	dc	75	14	82	f6	11	10	5e	ae	13	45	c8	72	aa	7a	1b	4c	53	10	2c	56	d8	87	c2	83	bb	d5	57	4a	fc	0f	f4	2e	a1	3b	81	23	9d	d8	5c	3b	ce	60	86	18	46	94	c6	aa	bd	6b	bd	24	be	d3	09	45	d8	3a	40	ed	d7	e1	85	94	0f	e0	23	20	6c	0a	f7	92	ea	7b	70	b5	a2	36	d3	83	88	d5	03	cf	db	22	e2	56	93	d8	ff	7b	e8	60	ec	95	81	28	f7	22	d9	c9	7a	df	8e	19	1d	81	b8	cc	dd	17	e5	60	d3	62	d6	69	8f	77	01	e0	16	e2	19	d5	34	0c	47	13	cb	54	bb	8d	48	64	28	48	92	04	ce	cd	c8	a5	a3	5e	63	0b	fc	ad	d0	70	a8	e1	12	03	6e	15	e4	ca	89	9c	21	78	95	9d	f6	e9	ea	8c	29	fa	90	b0	d9	92	c0	b2	f0	1f	6a	7c	d5	25	e9	77	8b	d1	4c	07	59	26	40	1d	81	1b	b3	0f	33	f8	fd	21	e8	91	bf	2d	a3	8a	f2	a1	dd	99	6e	1d	df	7c	21	13	e3	db	3c	a4	44	bf	83	65	9a	fe	65	e9	68	41	69	ef	94	53	0e	f4	11	90	f6	86	e2	b3	c6	5f	b4	33	b3	ab	aa	70	2d	fd	3e	9c	1c	e7	b7	ce	37	0e	11	8e	9f	6d	be	9f	66	b9	19	73	07	11	9d	7f	78	dd	05	b5	b1	10	8e	a3	b3	7a	9c	ec	7f	4a	b7	98	3a	c2	06	78	bd	3d	
7e	67	99	a3	db	7b	11	aa	ed	99	3f	fe	d6	cd	ba	ea	90	06	b8	54	59	46	57	03	75	ea	e5	5d	ae	d5	5b	42	38	51	0a	97	35	49	d9	2b	9e	9f	1f	07	a4	f5	b2	de	ac	df	a4	59	79	11	47	72	26	f7	f4	8b	ae	cf	f2	d9	7f	73	24	67	ee	6d	ce	d6	24	58	07	1a	6b	a1	f8	80	07	00	8c	6c	1f	a5	7d	6b	d3	02	b1	8f	8a	7d	06	68	5b	03	a8	56	85	f6	b5	c6	0f	68	c3	bc	ae	70	db	e9	fb	7d	e5	2f	3b	90	e3	ba	93	d0	c5	2b	1f	51	f6	25	44	e9	8b	1d	90	bb	78	2d	ac	dc	9b	ee	20	c5	ff	69	52	f0	e9	07	41	50	0d	4e	40	22	39	2c	f5	b0	10	89	df	ad	05	fb	0f	a6	a1	c1	ab	b2	98	7a	b0	0d	04	34	dc	39	62	96	f1	c7	44	a2	66	b1	5d	fc	33	22	a6	ad	57	c2	a8	6a	0a	e0	82	c5	54	5b	47	ff	0e	3e	82	97	66	91	6a	a6	4b	dc	75	14	82	f6	11	10	5e	ae	13	45	c8	72	aa	7a	1b	4c	53	10	2c	56	d8	87	c2	83	bb	d5	57	4a	fc	0f	f4	2e	a1	3b	81	23	9d	d8	5c	3b	ce	60	86	18	46	94	c6	aa	bd	6b	bd	24	be	d3	09	45	d8	3a	40	ed	d7	e1	85	94	0f	e0	23	20	6c	0a	f7	92	ea	7b	70	b5	a2	36	d3	83	88	d5	03	cf	db	22	e2	56	93	d8	ff	7b	e8	60	ec	95	81	28	f7	22	d9	c9	7a	df	8e	19	1d	81	b8	cc	dd	17	e5	60	d3	62	d6	69	8f	77	01	e0	16	e2	19	d5	34	0c	47	13	cb	54	bb	8d	48	64	28	48	92	04	ce	cd	c8	a5	a3	5e	63	0b	fc	ad	d0	70	a8	e1	12	03	6e	15	e4	ca	89	9c	21	78	95	9d	f6	e9	ea	8c	29	fa	90	b0	d9	92	c0	b2	f0	1f	6a	7c	d5	25	e9	77	8b	d1	4c	07	59	26	40	1d	81	1b	b3	0f	33	f8	fd	21	e8	91	bf	2d	a3	8a	f2	a1	dd	99	6e	1d	df	7c	21	13	e3	db	3c	a4	44	bf	83	65	9a	fe	65	e9	68	41	69	ef	94	53	0e	f4	11	90	f6	86	e2	b3	c6	5f	b4	33	b3	ab	aa	70	2d	fd	3e	9c	1c	e7	b7	ce	37	0e	11	8e	9f	6d	be	9f	66	b9	19	73	07	11	9d	7f	78	dd	05	b5	b1	10	8e	a3	b3	7a	9c	ec	7f	4a	b7	98	3a	c2	06	78	bd	3d	
7e	67	99	a3	db	7b	11	aa	ed	99	3f	fe	d6	cd	ba	ea	90	06	b8	54	59	46	57	03	75	ea	e5	5d	ae	d5	5b	42	38	51	0a	97	35	49	d9	2b	9e	9f	1f	07	a4	f5	b2	de	ac	df	a4	59	79	11	47	72	26	f7	f4	8b	ae	cf	f2	d9	7f	73	24	67	ee	6d	ce	d6	24	58	07	1a	6b	a1	f8	80	07	00	8c	6c	1f	a5	7d	6b	d3	02	b1	8f	8a	7d	06	68	5b	03	a8	56	85	f6	b5	c6	0f	68	c3	bc	ae	70	db	e9	fb	7d	e5	2f	3b	90	e3	ba	93	d0	c5	2b	1f	51	f6	25	44	e9	8b	1d	90	bb	78	2d	ac	dc	9b	ee	20	c5	ff	69	52	f0	e9	07	41	50	0d	4e	40	22	39	2c	f5	b0	10	89	df	ad	05	fb	0f	a6	a1	c1	ab	b2	98	7a	b0	0d	04	34	dc	39	62	96	f1	c7	44	a2	66	b1	5d	fc	33	22	a6	ad	57	c2	a8	6a	0a	e0	82	c5	54	5b	47	ff	0e	3e	82	97	66	91	6a	a6	4b	dc	75	14	82	f6	11	10	5e	ae	13	45	c8	72	aa	7a	1b	4c	53	10	2c	56	d8	87	c2	83	bb	d5	57	4a	fc	0f	f4	2e	a1	3b	81	23	9d	d8	5c	3b	ce	60	86	18	46	94	c6	aa	bd	6b	bd	24	be	d3	09	45	d8	3a	40	ed	d7	e1	85	94	0f	e0	23	20	6c	0a	f7	92	ea	7b	70	b5	a2	36	d3	83	88	d5	03	cf	db	22	e2	56	93	d8	ff	7b	e8	60	ec	95	81	28	f7	22	d9	c9	7a	df	8e	19	1d	81	b8	cc	dd	17	e5	60	d3	62	d6	69	8f	77	01	e0	16	e2	19	d5	34	0c	47	13	cb	54	bb	8d	48	64	28	48	92	04	ce	cd	c8	a5	a3	5e	63	0b	fc	ad	d0	70	a8	e1	12	03	6e	15	e4	ca	89	9c	21	78	95	9d	f6	e9	ea	8c	29	fa	90	b0	d9	92	c0	b2	f0	1f	6a	7c	d5	25	e9	77	8b	d1	4c	07	59	26	40	1d	81	1b	b3	0f	33	f8	fd	21	e8	91	bf	2d	a3	8a	f2	a1	dd	99	6e	1d	df	7c	21	13	e3	db	3c	a4	44	bf	83	65	9a	fe	65	e9	68	41	69	ef	94	53	0e	f4	11	90	f6	86	e2	b3	c6	5f	b4	33	b3	ab	aa	70	2d	fd	3e	9c	1c	e7	b7	ce	37	0e	11	8e	9f	6d	be	9f	66	b9	19	73	07	11	9d	7f	78	dd	05	b5	b1	10	8e	a3	b3	7a	9c	ec	7f	4a	b7	98	3a	c2	06	78	bd	3d	