
9e	70	c2	43	01	5b	cb	db	ef	80	d6	c5	d3	13	8b	72	d2	9d	8c	5a	8b	b1	a8	f0	b1	f4	e9	55	31	88	6e	6a	72	b6	f6	71	15	ef	72	f5	19	01	6a	1e	11	55	cd	bc	77	75	8d	2f	d6	0c	b9	3e	64	c7	6c	87	9a	f0	f4	52	d9	68	89	9a	94	01	47	e2	d3	de	66	30	02	4d	6b	1e	06	0c	c6	29	44	85	bf	04	a6	bc	66	ca	77	d8	17	af	45	d5	bf	49	3b	bc	f1	25	c2	2f	a6	f2	56	72	fb	ff	20	2e	ea	5e	b7	a1	d9	a1	ab	39	bc	6d	83	a4	5d	8d	39	87	08	5c	56	4e	9d	49	79	7c	a5	9c	a5	7b	01	11	fc	82	22	3a	92	7a	3a	82	72	da	04	1c	c9	7c	77	e5	28	66	a5	7e	71	f6	1c	aa	8e	56	d4	d7	4d	22	e0	10	f4	19	1a	05	eb	96	e6	72	19	89	b0	97	8c	8e	22	5c	38	22	9e	b1	52	99	06	1f	99	ca	38	79	93	dc	bd	4f	4f	d8	43	e5	7d	fa	75	0a	95	25	1a	2a	59	bd	60	19	32	e7	96	34	28	dd	8c	ce	86	65	d9	1f	44	cc	91	45	21	6d	4d	95	db	e0	e1	1a	53	fb	9f	d5	88	f0	d4	33	24	95	b9	ad	34	1a	03	b6	98	04	32	5a	83	48	b7	5f	9f	01	e1	c3	23	73	35	f8	e1	2a	23	4f	78	e7	39	06	b7	ce	88	b4	e4	cf	6d	38	ba	04	a2	6c	32	ad	65	f3	d2	31	45	77	6b	e5	d9	ac	15	9b	a5	9c	ce	f0	c7	9c	aa	3f	61	c9	55	34	e2	a6	2a	13	61	62	0b	24	90	3d	a8	d2	e8	e7	06	d1	9b	ba	ee	a3	d0	8b	f1	ea	db	65	70	a8	e1	9f	90	4c	04	1a	c2	ae	b6	62	62	4e	8f	cb	ce	0f	07	be	12	f1	b7	d9	99	c4	8c	38	f0	0b	a3	7f	f0	26	31	6f	4c	ed	41	6a	f2	4d	c3	f6	55	f2	8d	07	90	58	2b	7d	89	05	9c	7d	8d	cb	32	b2	c8	a4	af	bb	0d	2d	57	34	f2	a2	09	7d	07	e7	9d	8a	a4	c2	ed	8a	2d	74	70	82	a2	ee	6e	c0	4a	36	3e	5d	42	8c	55	d0	25	88	0b	7c	2d	51	17	db	af	68	62	76	88	3b	e1	f8	3f	3a	9a	82	a3	72	df	df	87	b4	d1	55	de	a2	4d	9f	a2	94	8d	84	1a	cb	0f	e4	54	ae	63	3e	b4	85	df	87	11	69	a1	83	dc	de	08	c3	e9	3c	ec	ea	da	98	f6	8e	
9e	70	c2	43	01	5b	cb	db	ef	80	d6	c5	d3	13	8b	72	d2	9d	8c	5a	8b	b1	a8	f0	b1	f4	e9	55	31	88	6e	6a	72	b6	f6	71	15	ef	72	f5	19	01	6a	1e	11	55	cd	bc	77	75	8d	2f	d6	0c	b9	3e	64	c7	6c	87	9a	f0	f4	52	d9	68	89	9a	94	01	47	e2	d3	de	66	30	02	4d	6b	1e	06	0c	c6	29	44	85	bf	04	a6	bc	66	ca	77	d8	17	af	45	d5	bf	49	3b	bc	f1	25	c2	2f	a6	f2	56	72	fb	ff	20	2e	ea	5e	b7	a1	d9	a1	ab	39	bc	6d	83	a4	5d	8d	39	87	08	5c	56	4e	9d	49	79	7c	a5	9c	a5	7b	01	11	fc	82	22	3a	92	7a	3a	82	72	da	04	1c	c9	7c	77	e5	28	66	a5	7e	71	f6	1c	aa	8e	56	d4	d7	4d	22	e0	10	f4	19	1a	05	eb	96	e6	72	19	89	b0	97	8c	8e	22	5c	38	22	9e	b1	52	99	06	1f	99	ca	38	79	93	dc	bd	4f	4f	d8	43	e5	7d	fa	75	0a	95	25	1a	2a	59	bd	60	19	32	e7	96	34	28	dd	8c	ce	86	65	d9	1f	44	cc	91	45	21	6d	4d	95	db	e0	e1	1a	53	fb	9f	d5	88	f0	d4	33	24	95	b9	ad	34	1a	03	b6	98	04	32	5a	83	48	b7	5f	9f	01	e1	c3	23	73	35	f8	e1	2a	23	4f	78	e7	39	06	b7	ce	88	b4	e4	cf	6d	38	ba	04	a2	6c	32	ad	65	f3	d2	31	45	77	6b	e5	d9	ac	15	9b	a5	9c	ce	f0	c7	9c	aa	3f	61	c9	55	34	e2	a6	2a	13	61	62	0b	24	90	3d	a8	d2	e8	e7	06	d1	9b	ba	ee	a3	d0	8b	f1	ea	db	65	70	a8	e1	9f	90	4c	04	1a	c2	ae	b6	62	62	4e	8f	cb	ce	0f	07	be	12	f1	b7	d9	99	c4	8c	38	f0	0b	a3	7f	f0	26	31	6f	4c	ed	41	6a	f2	4d	c3	f6	55	f2	8d	07	90	58	2b	7d	89	05	9c	7d	8d	cb	32	b2	c8	a4	af	bb	0d	2d	57	34	f2	a2	09	7d	07	e7	9d	8a	a4	c2	ed	8a	2d	74	70	82	a2	ee	6e	c0	4a	36	3e	5d	42	8c	55	d0	25	88	0b	7c	2d	51	17	db	af	68	62	76	88	3b	e1	f8	3f	3a	9a	82	a3	72	df	df	87	b4	d1	55	de	a2	4d	9f	a2	94	8d	84	1a	cb	0f	e4	54	ae	63	3e	b4	85	df	87	11	69	a1	83	dc	de	08	c3	e9	3c	ec	ea	da	98	f6	8e	
ab	e8	8a	4c	9c	81	2a	e8	e7	e0	c7	ca	d7	19	bc	9c	92	ad	69	c3	ed	14	25	24	67	c4	82	eb	72	57	17	66	9d	8e	fc	50	3e	fc	45	08	cb	87	ad	c9	60	ba	f3	5c	bd	3b	c6	c7	ee	23	15	78	c4	e9	b3	6b	23	e5	1a	a6	51	5f	bf	a9	e0	8f	38	a3	7c	d8	31	18	a0	45	76	d6	c1	a5	78	34	35	e6	15	f7	66	ac	ac	a5	c6	cd	ef	47	af	95	27	46	d4	8f	34	c7	ab	35	2d	02	f8	81	b8	b5	62	fa	be	ad	18	73	25	14	fb	99	9c	b1	42	5d	87	b1	7d	cd	bd	c8	40	b9	06	c0	6c	66	25	76	9e	95	2c	f0	52	13	c8	72	69	bc	34	92	b8	0d	65	d9	ea	45	98	08	97	05	56	62	30	c3	da	a7	e1	41	8a	f0	55	39	f3	ef	5b	0b	c5	27	fe	52	f8	c5	0f	12	34	16	83	8e	4d	6a	51	ab	43	92	5d	21	e1	e2	24	20	8b	0a	3e	59	aa	4c	e6	ae	cd	37	da	17	0e	d3	96	70	ef	33	5d	d0	f3	6d	e6	f4	23	9a	3b	9f	cd	a3	8f	00	89	e8	a6	47	8e	52	69	49	6b	16	a4	8c	c8	15	76	47	c6	02	83	da	9e	10	ef	5f	ea	c8	3d	10	3b	c3	38	90	3a	cc	ce	68	31	ef	01	12	72	f6	c2	07	d1	d6	3a	50	ac	72	57	a7	fe	2e	8a	2e	30	30	89	f2	35	c9	02	05	d0	66	df	f1	d9	1a	18	be	cc	93	ad	15	a1	eb	52	05	de	00	1c	90	63	99	87	74	be	3a	14	e6	6b	60	eb	dc	63	8d	96	7d	71	12	a5	ca	19	78	4c	49	49	c6	06	a9	0b	a2	e3	70	aa	64	c8	68	41	78	20	a6	a5	40	dd	29	00	40	39	ce	74	75	49	d2	d1	3c	c1	89	1d	3d	9d	9c	4c	4c	ac	3c	80	b6	9d	35	76	b7	40	d0	c0	42	e4	fb	74	00	d3	c5	c2	e3	ec	36	85	71	d0	53	3a	38	39	ff	dc	c4	17	ab	d9	5c	b6	53	99	be	7d	c6	8d	98	f9	86	63	07	46	b1	c9	7b	74	58	36	7e	de	6e	a5	f9	9a	49	17	39	da	ef	8c	56	f5	07	b6	08	ba	40	d8	dd	97	89	7f	86	2d	ff	85	1a	2b	c5	81	cd	5d	cb	81	11	47	90	8d	88	37	16	44	47	a6	1e	96	ac	48	24	84	bf	4f	73	27	62	c4	86	ae	f2	37	cf	53	d9	d2	37	17	80	76	46	5c	f2	bf	3e	59	97	
ab	e8	8a	4c	9c	81	2a	e8	e7	e0	c7	ca	d7	19	bc	9c	92	ad	69	c3	ed	14	25	24	67	c4	82	eb	72	57	17	66	9d	8e	fc	50	3e	fc	45	08	cb	87	ad	c9	60	ba	f3	5c	bd	3b	c6	c7	ee	23	15	78	c4	e9	b3	6b	23	e5	1a	a6	51	5f	bf	a9	e0	8f	38	a3	7c	d8	31	18	a0	45	76	d6	c1	a5	78	34	35	e6	15	f7	66	ac	ac	a5	c6	cd	ef	47	af	95	27	46	d4	8f	34	c7	ab	35	2d	02	f8	81	b8	b5	62	fa	be	ad	18	73	25	14	fb	99	9c	b1	42	5d	87	b1	7d	cd	bd	c8	40	b9	06	c0	6c	66	25	76	9e	95	2c	f0	52	13	c8	72	69	bc	34	92	b8	0d	65	d9	ea	45	98	08	97	05	56	62	30	c3	da	a7	e1	41	8a	f0	55	39	f3	ef	5b	0b	c5	27	fe	52	f8	c5	0f	12	34	16	83	8e	4d	6a	51	ab	43	92	5d	21	e1	e2	24	20	8b	0a	3e	59	aa	4c	e6	ae	cd	37	da	17	0e	d3	96	70	ef	33	5d	d0	f3	6d	e6	f4	23	9a	3b	9f	cd	a3	8f	00	89	e8	a6	47	8e	52	69	49	6b	16	a4	8c	c8	15	76	47	c6	02	83	da	9e	10	ef	5f	ea	c8	3d	10	3b	c3	38	90	3a	cc	ce	68	31	ef	01	12	72	f6	c2	07	d1	d6	3a	50	ac	72	57	a7	fe	2e	8a	2e	30	30	89	f2	35	c9	02	05	d0	66	df	f1	d9	1a	18	be	cc	93	ad	15	a1	eb	52	05	de	00	1c	90	63	99	87	74	be	3a	14	e6	6b	60	eb	dc	63	8d	96	7d	71	12	a5	ca	19	78	4c	49	49	c6	06	a9	0b	a2	e3	70	aa	64	c8	68	41	78	20	a6	a5	40	dd	29	00	40	39	ce	74	75	49	d2	d1	3c	c1	89	1d	3d	9d	9c	4c	4c	ac	3c	80	b6	9d	35	76	b7	40	d0	c0	42	e4	fb	74	00	d3	c5	c2	e3	ec	36	85	71	d0	53	3a	38	39	ff	dc	c4	17	ab	d9	5c	b6	53	99	be	7d	c6	8d	98	f9	86	63	07	46	b1	c9	7b	74	58	36	7e	de	6e	a5	f9	9a	49	17	39	da	ef	8c	56	f5	07	b6	08	ba	40	d8	dd	97	89	7f	86	2d	ff	85	1a	2b	c5	81	cd	5d	cb	81	11	47	90	8d	88	37	16	44	47	a6	1e	96	ac	48	24	84	bf	4f	73	27	62	c4	86	ae	f2	37	cf	53	d9	d2	37	17	80	76	46	5c	f2	bf	3e	59	97	